{"<s>": 0, "<pad>": 1, "</s>": 2, "<unk>": 3, "▁": 4, "の": 5, "、": 6, "。": 7, "に": 8, "年": 9, "を": 10, "は": 11, "た": 12, "が": 13, "）": 14, "（": 15, "で": 16, "-": 17, "月": 18, "と": 19, "て": 20, ".": 21, "し": 22, "日": 23, "・": 24, "「": 25, "」": 26, "れ": 27, "さ": 28, "^": 29, "(": 30, "1": 31, "『": 32, "する": 33, "』": 34, "いる": 35, "2": 36, "も": 37, "ある": 38, "/": 39, ",": 40, "3": 41, "から": 42, "4": 43, "い": 44, ")": 45, "こと": 46, "な": 47, "：": 48, "第": 49, "“": 50, "閲覧": 51, "5": 52, ":": 53, "6": 54, "10": 55, "として": 56, "7": 57, "人": 58, "8": 59, "a": 60, ").": 61, "や": 62, "9": 63, "れる": 64, "12": 65, "ない": 66, "”": 67, "日本": 68, "なっ": 69, "11": 70, "市": 71, "ため": 72, "者": 73, "など": 74, "的": 75, "この": 76, "県": 77, "へ": 78, "b": 79, "子": 80, "なる": 81, "中": 82, "大@@": 83, "版": 84, "その": 85, "一": 86, "後": 87, "町": 88, "S@@": 89, "か": 90, "号": 91, "まで": 92, "駅": 93, "あっ": 94, "よう": 95, "あり": 96, "部": 97, "ア@@": 98, "より": 99, "会": 100, "家": 101, "回": 102, "られ": 103, "大": 104, "リ@@": 105, "2021": 106, "ス@@": 107, "という": 108, "p": 109, "だ": 110, "線": 111, "C@@": 112, "マ@@": 113, "2020": 114, "P@@": 115, "M@@": 116, "英語": 117, "B@@": 118, "もの": 119, "また": 120, "20": 121, "T@@": 122, "本": 123, "2019": 124, "D@@": 125, "カ@@": 126, "A": 127, "e": 128, "村": 129, "時": 130, "H@@": 131, "放送": 132, "c": 133, "of": 134, "田": 135, "名": 136, "山": 137, "://": 138, "っ": 139, "大学": 140, "F@@": 141, "川": 142, "2018": 143, "30": 144, "社": 145, "15": 146, "う": 147, "L@@": 148, "昭和": 149, "き": 150, "s@@": 151, "ら": 152, "s": 153, "上": 154, "ク@@": 155, "R@@": 156, "G@@": 157, "2017": 158, "2016": 159, "K@@": 160, "”.": 161, "ト@@": 162, "\"": 163, "二": 164, "i": 165, "内": 166, "t@@": 167, "おり": 168, "ラ@@": 169, "り": 170, "〜": 171, "c@@": 172, "2015": 173, "m@@": 174, "オ@@": 175, "シ@@": 176, "東京": 177, "前": 178, "ん": 179, "化": 180, "タ@@": 181, "d": 182, "2014": 183, "ロ@@": 184, "により": 185, "N@@": 186, "13": 187, "サ@@": 188, "18": 189, "b@@": 190, "16": 191, "による": 192, "25": 193, "バ@@": 194, "道": 195, "せ": 196, "エ@@": 197, "h@@": 198, "戦": 199, "21": 200, "19": 201, "間": 202, "元": 203, "17": 204, "数": 205, "2013": 206, "14": 207, "国": 208, "分": 209, "コ@@": 210, "ド@@": 211, "2012": 212, "平成": 213, "話": 214, "p@@": 215, "性": 216, "22": 217, "E@@": 218, "ず": 219, "島": 220, "ナ@@": 221, "ISBN": 222, "世界": 223, "位": 224, "in": 225, "イ@@": 226, "2011": 227, "n@@": 228, "t": 229, "'": 230, "地": 231, "レ@@": 232, "三": 233, "目": 234, "24": 235, "A@@": 236, "2022": 237, "学校": 238, "g@@": 239, "る": 240, "み": 241, "com": 242, "the": 243, "2010": 244, "23": 245, "W@@": 246, "く": 247, "o": 248, "ミ@@": 249, "一@@": 250, "によって": 251, "役": 252, "語": 253, "y": 254, "局": 255, "所": 256, "新": 257, "区": 258, "長": 259, "これ": 260, "ル@@": 261, "J@@": 262, "2@@": 263, "28": 264, "er": 265, "&": 266, "k@@": 267, "d@@": 268, "・@@": 269, "27": 270, "The": 271, "26": 272, "and": 273, "ば": 274, "ウ@@": 275, "ハ@@": 276, "i@@": 277, "2009": 278, "原": 279, "なり": 280, "つ": 281, "映画": 282, "郡": 283, "現在": 284, "f@@": 285, "小@@": 286, "E": 287, "軍": 288, "だっ": 289, "18@@": 290, "について": 291, "ノ@@": 292, "S": 293, "時代": 294, "デ@@": 295, "29": 296, "中@@": 297, "研究": 298, "度": 299, "ビ@@": 300, "y@@": 301, "作": 302, "=": 303, "法": 304, "学": 305, "www": 306, "m": 307, "2008": 308, "en": 309, "C": 310, "e@@": 311, "州": 312, "es": 313, "O@@": 314, "ラ": 315, "キ@@": 316, "発売": 317, "用": 318, "https": 319, "!": 320, "l@@": 321, "0": 322, "下": 323, "高@@": 324, "場": 325, "場合": 326, "ニ@@": 327, "お@@": 328, "野": 329, "ー": 330, "ッ@@": 331, "パ@@": 332, "セ@@": 333, "型": 334, "初": 335, "3@@": 336, "物": 337, "2007": 338, "V@@": 339, "5@@": 340, "4@@": 341, "in@@": 342, "曲": 343, "on": 344, "なかっ": 345, "作品": 346, "なく": 347, "er@@": 348, "ル": 349, "使用": 350, "本@@": 351, "賞": 352, "B": 353, "機": 354, "上@@": 355, "い@@": 356, "登場": 357, "ン": 358, "生": 359, "番組": 360, "6@@": 361, "お": 362, "u@@": 363, "31": 364, "新@@": 365, "–": 366, "ing": 367, "す": 368, "頁": 369, "ス": 370, "力": 371, "形": 372, "見": 373, "公式": 374, "モ@@": 375, "ン@@": 376, "車": 377, "巻": 378, "等": 379, "選手": 380, "フ@@": 381, "え": 382, "T": 383, "a@@": 384, "ム@@": 385, "メ@@": 386, "ディ@@": 387, "たち": 388, "事": 389, "できる": 390, "ク": 391, "編": 392, "他": 393, "監督": 394, "[": 395, "ジ@@": 396, "あ@@": 397, "ダ@@": 398, "an": 399, "I@@": 400, "ブ@@": 401, "ネ@@": 402, "鉄道": 403, "出演": 404, "D": 405, "2006": 406, "体": 407, "次": 408, "%": 409, "M": 410, "ン・@@": 411, "られる": 412, "手": 413, "三@@": 414, "テレビ": 415, "史": 416, "k": 417, "チ@@": 418, "において": 419, "ズ@@": 420, "か@@": 421, "面": 422, "グ@@": 423, "v@@": 424, "ガ@@": 425, "17@@": 426, "行わ": 427, "系": 428, "ページ": 429, "I": 430, "その後": 431, "ed": 432, "al@@": 433, "7@@": 434, "f": 435, "開始": 436, "それ": 437, "シリーズ": 438, "an@@": 439, "西@@": 440, "O": 441, "万": 442, "！": 443, "同": 444, "期": 445, "科": 446, "め": 447, "約": 448, "ベ@@": 449, "株式会社": 450, "式": 451, "水@@": 452, "のみ": 453, "ar@@": 454, "ティ@@": 455, "n": 456, "w@@": 457, "歳": 458, "一覧": 459, "o@@": 460, "南": 461, "方": 462, "水": 463, "ボ@@": 464, "2005": 465, "r@@": 466, "東@@": 467, "ナ": 468, "テ@@": 469, "F": 470, "東": 471, "受け": 472, "en@@": 473, "寺": 474, "～": 475, "リ": 476, "し@@": 477, "全": 478, "_": 479, "井": 480, "P": 481, "jp": 482, "G": 483, "における": 484, "木": 485, "時点": 486, "出": 487, "代": 488, "活動": 489, "情報": 490, "山@@": 491, "Y@@": 492, "時間": 493, "ソ@@": 494, "ツ@@": 495, "U@@": 496, "金": 497, "城": 498, "マン": 499, "声": 500, "代表": 501, "存在": 502, "al": 503, "R": 504, "アメリカ": 505, "リー": 506, "ピ@@": 507, "谷": 508, "国@@": 509, "書": 510, "8@@": 511, "アン@@": 512, "見@@": 513, "委員": 514, "発表": 515, "しかし": 516, "き@@": 517, "真@@": 518, "re@@": 519, "or@@": 520, "点": 521, "9@@": 522, "http": 523, "王": 524, "ール": 525, "多く": 526, "可能": 527, "下@@": 528, "作曲": 529, "ホ@@": 530, "ム": 531, "大会": 532, "2004": 533, "当時": 534, "主": 535, "世": 536, "不@@": 537, "プ@@": 538, "on@@": 539, "st@@": 540, "明治": 541, "十": 542, "g": 543, "L": 544, "オリジナル": 545, "および": 546, "公@@": 547, "長@@": 548, "大阪": 549, "出版": 550, "日@@": 551, "館": 552, "J": 553, "el@@": 554, "ゲーム": 555, "ヒ@@": 556, "出@@": 557, "]": 558, "色": 559, "一部": 560, "ま": 561, "z@@": 562, "わ": 563, "2000": 564, "神": 565, "X": 566, "北": 567, "サン@@": 568, "バス": 569, "978": 570, "音楽": 571, "氏": 572, "タ": 573, "K": 574, "夫": 575, "ス・@@": 576, "際": 577, "アル@@": 578, "開催": 579, "ま@@": 580, "アーカイブ": 581, "日本語": 582, "海": 583, "開発": 584, "でき": 585, "さん": 586, "にて": 587, "た@@": 588, "彼": 589, "00": 590, "男": 591, "ケ@@": 592, "ック": 593, "行": 594, "つ@@": 595, "イン@@": 596, "美": 597, "国際": 598, "正@@": 599, "み@@": 600, "サイト": 601, "ゴ@@": 602, "→": 603, "西": 604, "10@@": 605, "文": 606, "天@@": 607, "ノ": 608, "室": 609, "教育": 610, "h": 611, "せる": 612, "地域": 613, "ア": 614, "同@@": 615, "0@@": 616, "官": 617, "at@@": 618, "x": 619, "2003": 620, "高": 621, "ロ": 622, "口": 623, "屋": 624, "ズ": 625, "50": 626, "チーム": 627, "am@@": 628, "北@@": 629, "ch@@": 630, "り@@": 631, "出身": 632, "l": 633, "事業": 634, "美@@": 635, "スト@@": 636, "台": 637, "さ@@": 638, "リー@@": 639, "ワ@@": 640, "神@@": 641, "バー@@": 642, "女": 643, "平": 644, "南@@": 645, "イ": 646, "橋": 647, "リーグ": 648, "側": 649, "旧": 650, "j@@": 651, "番": 652, "呼ば": 653, "変更": 654, "センター": 655, "小学校": 656, "it@@": 657, "ドイツ": 658, "の@@": 659, "店": 660, "H": 661, "担当": 662, "ro@@": 663, "ル・@@": 664, "年度": 665, "スト": 666, "pp": 667, "け": 668, "コ": 669, "関係": 670, "ザ@@": 671, "生@@": 672, "2001": 673, "級": 674, "ポ@@": 675, "別": 676, "ペ@@": 677, "2002": 678, "じ": 679, "行っ": 680, "星": 681, "ター": 682, "試合": 683, "優勝": 684, "+": 685, "ロー@@": 686, "光": 687, "参加": 688, "アルバム": 689, "チ": 690, "以降": 691, "馬": 692, "高等": 693, "無@@": 694, "to": 695, "Y": 696, "なお": 697, "こ": 698, "収録": 699, "沢": 700, "員": 701, "ヴィ@@": 702, "ra@@": 703, "和@@": 704, "ー@@": 705, "手@@": 706, "同年": 707, "フェ@@": 708, "フ": 709, "省": 710, "隊": 711, "ット": 712, "記録": 713, "だけ": 714, "歌": 715, "U": 716, "所属": 717, "平@@": 718, "キ": 719, "コン@@": 720, "),": 721, "出場": 722, "【": 723, "news": 724, "都": 725, "事件": 726, "ジャ@@": 727, "野@@": 728, "16@@": 729, "ツ": 730, "明": 731, "／": 732, "有@@": 733, "円": 734, "会社": 735, "える": 736, "協会": 737, ";": 738, "＝": 739, "歴史": 740, "100": 741, "※": 742, "く@@": 743, "種": 744, "ol@@": 745, "同じ": 746, "】": 747, "名@@": 748, "以下": 749, "中国": 750, "田@@": 751, "リンク": 752, "is": 753, "〈": 754, "マ": 755, "宮": 756, "たり": 757, "制": 758, "…": 759, "白@@": 760, "カ": 761, "〉": 762, "内@@": 763, "40": 764, "院": 765, "社会": 766, "持つ": 767, "ti@@": 768, "制作": 769, "公開": 770, "ブ": 771, "金@@": 772, "人物": 773, "心": 774, "de": 775, "いう": 776, "u": 777, "アニメ": 778, "ファ@@": 779, "以上": 780, "に関する": 781, "Ch@@": 782, "Z@@": 783, "un@@": 784, "シーズン": 785, "利用": 786, "文化": 787, "設置": 788, "us": 789, "現": 790, "権": 791, "W": 792, "00@@": 793, "野球": 794, "一般": 795, "々": 796, "作詞": 797, "ドラマ": 798, "ド・@@": 799, "NHK": 800, "15@@": 801, "外": 802, "ギ@@": 803, "アー@@": 804, "ジェ@@": 805, "集": 806, "中央": 807, "ド": 808, "th@@": 809, "う@@": 810, "な@@": 811, "頃": 812, "及び": 813, "om@@": 814, "重@@": 815, "女性": 816, "シュ@@": 817, "レ": 818, "ic@@": 819, "風": 820, "イン": 821, "石": 822, "付": 823, "市立": 824, "St@@": 825, "es@@": 826, "安@@": 827, "中心": 828, "年代": 829, "自分": 830, "之": 831, "プロ": 832, "花": 833, "ac@@": 834, "っ@@": 835, "よ": 836, "地方": 837, "ん@@": 838, "記念": 839, "団": 840, "派": 841, "父": 842, "直@@": 843, "V": 844, "ad@@": 845, "決定": 846, "1999": 847, "is@@": 848, "ers": 849, "ヘ@@": 850, "ます": 851, "ri@@": 852, "結果": 853, "シャ@@": 854, "問題": 855, "#": 856, "ur@@": 857, "都市": 858, "ヤ@@": 859, "文@@": 860, "崎": 861, "ち": 862, "計画": 863, "ほか": 864, "ート": 865, "ち@@": 866, "ひ@@": 867, "明@@": 868, "at": 869, "ラン@@": 870, "頭": 871, "全国": 872, "士": 873, "カー@@": 874, "さらに": 875, "多@@": 876, "条": 877, "こ@@": 878, "石@@": 879, "津": 880, "自身": 881, "自@@": 882, "スポーツ": 883, "アイ@@": 884, "なら": 885, "勝": 886, "新聞": 887, "音": 888, "ライ@@": 889, "出し": 890, "わ@@": 891, "気": 892, "le@@": 893, "N": 894, "雄": 895, "党": 896, ")@@": 897, "1998": 898, "em@@": 899, "各": 900, "フィ@@": 901, "郎": 902, "艦": 903, "フランス": 904, "ニュース": 905, "分@@": 906, "正": 907, "オ": 908, "as@@": 909, "和": 910, "ラー": 911, "技術": 912, "et": 913, "里": 914, "川@@": 915, "ながら": 916, "グループ": 917, "堂": 918, "海@@": 919, "府": 920, "html": 921, "む": 922, "四": 923, "卒業": 924, "{\\": 925, "発@@": 926, "原@@": 927, "設立": 928, "選挙": 929, "リリース": 930, "来": 931, "太郎": 932, "は@@": 933, "す@@": 934, "京都": 935, "行う": 936, "多い": 937, "流": 938, "ゲ@@": 939, "論": 940, "最終": 941, "特別": 942, "必要": 943, "記": 944, "ックス": 945, "信@@": 946, "攻撃": 947, "実@@": 948, "le": 949, "通り": 950, "門": 951, "発": 952, "co": 953, "岡": 954, "編曲": 955, "終了": 956, "ー・@@": 957, "船": 958, "r": 959, "入@@": 960, "経済": 961, "ニ": 962, "ーズ": 963, "でも": 964, "師": 965, "14@@": 966, "世紀": 967, "丁目": 968, "字": 969, "うち": 970, "ウ": 971, "に対して": 972, "li@@": 973, "総合": 974, "1997": 975, "シングル": 976, "et@@": 977, "ソン": 978, "得": 979, "小": 980, "治": 981, "イギリス": 982, "校": 983, "ラジオ": 984, "尾": 985, "朝": 986, "ダ": 987, "ミ": 988, "科学": 989, "久@@": 990, "AN@@": 991, "リア": 992, "チャ@@": 993, "教授": 994, "ユ@@": 995, "文庫": 996, "マー@@": 997, "ール@@": 998, "13@@": 999, "取り@@": 1000, "ース": 1001, "35": 1002, "il@@": 1003, "武@@": 1004, "路": 1005, "両": 1006, "X@@": 1007, "松@@": 1008, "愛": 1009, "オー@@": 1010, "務め": 1011, "用い": 1012, "達": 1013, "調査": 1014, "販売": 1015, "考え": 1016, "太": 1017, "通@@": 1018, "1990": 1019, "キャ@@": 1020, "中学校": 1021, "劇場": 1022, "後@@": 1023, "女子": 1024, "意味": 1025, "1996": 1026, "ター@@": 1027, "木@@": 1028, "成": 1029, "一つ": 1030, "たい": 1031, "合": 1032, "光@@": 1033, "ト・@@": 1034, "キャラクター": 1035, "トン": 1036, "司": 1037, "km": 1038, "メンバー": 1039, "組": 1040, "機関": 1041, "ふ@@": 1042, "と@@": 1043, "ia": 1044, "重": 1045, "五": 1046, "60": 1047, "議員": 1048, "章": 1049, "ト": 1050, "業": 1051, "地区": 1052, "母": 1053, "TV": 1054, "や@@": 1055, "政治": 1056, "000": 1057, "\\": 1058, "例": 1059, "再": 1060, "全@@": 1061, "高校": 1062, "1995": 1063, "20@@": 1064, "地@@": 1065, "場所": 1066, "システム": 1067, "訳": 1068, "です": 1069, "リン": 1070, "外@@": 1071, "総": 1072, "米": 1073, "戦争": 1074, "影響": 1075, "とき": 1076, "ag@@": 1077, "量": 1078, "el": 1079, "ation": 1080, "森": 1081, "人@@": 1082, "加@@": 1083, "モデル": 1084, "48": 1085, "AR@@": 1086, "ット@@": 1087, "01": 1088, "シ": 1089, "知ら": 1090, "と共に": 1091, "道路": 1092, "着": 1093, "政府": 1094, "管理": 1095, "建設": 1096, "前@@": 1097, "江": 1098, "千@@": 1099, "人間": 1100, "施設": 1101, "交通": 1102, "クラ@@": 1103, "di@@": 1104, "政": 1105, "廃止": 1106, "プ": 1107, "カル@@": 1108, "気@@": 1109, "林": 1110, "12@@": 1111, "1994": 1112, "サッカー": 1113, "ほど": 1114, "for": 1115, "企画": 1116, "古@@": 1117, "樹": 1118, "選手権": 1119, "同様": 1120, "務": 1121, "族": 1122, "が@@": 1123, "立": 1124, "ら@@": 1125, "法人": 1126, "指定": 1127, "?": 1128, "コー@@": 1129, "サイ@@": 1130, "経": 1131, "動": 1132, "波": 1133, "レイ@@": 1134, "当初": 1135, "ar": 1136, "名古屋": 1137, "法@@": 1138, "身": 1139, "45": 1140, "as": 1141, "最後": 1142, "妻": 1143, "カー": 1144, "ッド": 1145, "娘": 1146, "とともに": 1147, "ント": 1148, "x@@": 1149, "ゼ@@": 1150, "トリ@@": 1151, "英": 1152, "ック@@": 1153, "ルー@@": 1154, "プロ@@": 1155, "空": 1156, "当": 1157, "or": 1158, "率": 1159, "リン@@": 1160, "え@@": 1161, "宮@@": 1162, "最初": 1163, "Re@@": 1164, "|": 1165, "th": 1166, "獲得": 1167, "品": 1168, "祭": 1169, "生まれ": 1170, "向け": 1171, "1993": 1172, "志": 1173, "33": 1174, "学@@": 1175, "春": 1176, "義@@": 1177, "物語": 1178, "公園": 1179, "スター": 1180, "ヴァ@@": 1181, "ね": 1182, "ロシア": 1183, "類": 1184, "z": 1185, "日本@@": 1186, "配信": 1187, "兵": 1188, "介": 1189, "フォ@@": 1190, "ジョ@@": 1191, "1992": 1192, "ダー": 1193, "ーン": 1194, "30@@": 1195, "土@@": 1196, "マイ@@": 1197, "ak@@": 1198, "自動車": 1199, "何": 1200, "32": 1201, "座": 1202, "以外": 1203, "契約": 1204, "彦": 1205, "エン@@": 1206, "ろ": 1207, "教@@": 1208, "×": 1209, "器": 1210, "部分": 1211, "ブラ@@": 1212, "web": 1213, "ライブ": 1214, "パー@@": 1215, "製作": 1216, "ic": 1217, "受賞": 1218, "ップ": 1219, "路線": 1220, "デビュー": 1221, "赤@@": 1222, "40@@": 1223, "丸": 1224, "PDF": 1225, "ab@@": 1226, "位置": 1227, "年@@": 1228, "年間": 1229, "クラブ": 1230, "80": 1231, "CD": 1232, "国立": 1233, "吉@@": 1234, "JR": 1235, "ダム": 1236, "就任": 1237, "レー@@": 1238, "研究所": 1239, "記事": 1240, "定": 1241, "一方": 1242, "市@@": 1243, "デザイン": 1244, "ハイ@@": 1245, "発生": 1246, "清@@": 1247, "スタ@@": 1248, "北海道": 1249, "バー": 1250, "対": 1251, "海軍": 1252, "そして": 1253, "愛@@": 1254, "構成": 1255, "v": 1256, "実施": 1257, "ST@@": 1258, "相@@": 1259, "編集": 1260, "港": 1261, "車両": 1262, "河@@": 1263, "os@@": 1264, "じ@@": 1265, "id@@": 1266, "立@@": 1267, "生活": 1268, "TBS": 1269, "彼女": 1270, "主@@": 1271, "または": 1272, "ガ": 1273, "1991": 1274, "マル@@": 1275, "発行": 1276, "レン@@": 1277, "める": 1278, "34": 1279, "チェ@@": 1280, "ので": 1281, "葉": 1282, "Sh@@": 1283, "リング": 1284, "AS@@": 1285, "夏": 1286, "園": 1287, "ード": 1288, "民": 1289, "超": 1290, "ul@@": 1291, "それぞれ": 1292, "ut@@": 1293, "通": 1294, "ウィ@@": 1295, "命": 1296, "主義": 1297, "増@@": 1298, "ただし": 1299, "状態": 1300, "紹介": 1301, "夜": 1302, "1989": 1303, "ed@@": 1304, "ネット": 1305, "帝国": 1306, "ヨ@@": 1307, "転@@": 1308, "かつて": 1309, "us@@": 1310, "特に": 1311, "ap@@": 1312, "盤": 1313, "漫画": 1314, "最@@": 1315, "枚": 1316, "シン@@": 1317, "co@@": 1318, "知@@": 1319, "死": 1320, "ガン": 1321, "だ@@": 1322, "六": 1323, "｜": 1324, "アメリカ合衆国": 1325, "演": 1326, "花@@": 1327, "im@@": 1328, ">": 1329, "ご": 1330, "38": 1331, "IN@@": 1332, "企業": 1333, "ジュ@@": 1334, "広@@": 1335, "教": 1336, "航空": 1337, "ディ": 1338, "実": 1339, "1980": 1340, "説": 1341, "ts": 1342, "特@@": 1343, "しい": 1344, "org": 1345, "代@@": 1346, "36": 1347, "営業": 1348, "撮影": 1349, "イタリア": 1350, "製": 1351, "吉": 1352, "46": 1353, "25@@": 1354, "サービス": 1355, "付け": 1356, "界": 1357, "クロ@@": 1358, "八": 1359, "lo@@": 1360, "ハー@@": 1361, "70": 1362, "ent": 1363, "成@@": 1364, "戦闘": 1365, "先": 1366, "に@@": 1367, "び": 1368, "道@@": 1369, "信": 1370, "参照": 1371, "かけ": 1372, "たら": 1373, "製造": 1374, "異なる": 1375, "小説": 1376, "職": 1377, "運行": 1378, "連続": 1379, "れ@@": 1380, "め@@": 1381, "ネ": 1382, "蔵": 1383, "八@@": 1384, "二@@": 1385, "岩@@": 1386, "入り": 1387, "也": 1388, "55": 1389, "秒": 1390, "勝@@": 1391, "設定": 1392, "神社": 1393, "列車": 1394, "1988": 1395, "任": 1396, "42": 1397, "ph@@": 1398, "とも": 1399, "天": 1400, "写真": 1401, "名前": 1402, "ちゃん": 1403, "連@@": 1404, "家@@": 1405, "37": 1406, "久": 1407, "統計": 1408, "誌": 1409, "風@@": 1410, "これら": 1411, "機能": 1412, "組織": 1413, "w": 1414, "Twitter": 1415, "今@@": 1416, "ザ・@@": 1417, "マン@@": 1418, "ルト": 1419, "人口": 1420, "ング": 1421, "黒@@": 1422, "群": 1423, "広島": 1424, "1987": 1425, "ent@@": 1426, "病院": 1427, "ウェ@@": 1428, "開@@": 1429, "敵": 1430, "百": 1431, "佐@@": 1432, "持っ": 1433, "ば@@": 1434, "弾": 1435, "宗": 1436, "201@@": 1437, "ot@@": 1438, "志@@": 1439, "合併": 1440, "ir@@": 1441, "行@@": 1442, "瀬": 1443, "引き@@": 1444, "しく": 1445, "ものの": 1446, "街": 1447, "坂": 1448, "しまう": 1449, "id": 1450, "総@@": 1451, "著": 1452, "um@@": 1453, "理": 1454, "対応": 1455, "御@@": 1456, "39": 1457, "末": 1458, "全て": 1459, "永": 1460, "AT@@": 1461, "に対する": 1462, "j": 1463, "通信": 1464, "):": 1465, "クリ@@": 1466, "複数": 1467, "プラ@@": 1468, "入": 1469, "表": 1470, "41": 1471, "国道": 1472, "伊@@": 1473, "専門": 1474, "通常": 1475, "要": 1476, "名称": 1477, "-@@": 1478, "カード": 1479, "能力": 1480, "姿": 1481, "um": 1482, "対@@": 1483, "四@@": 1484, "{": 1485, "ig@@": 1486, "合@@": 1487, "高い": 1488, "ナー": 1489, "城@@": 1490, "流@@": 1491, "採用": 1492, "44": 1493, "福岡": 1494, "完全": 1495, "公演": 1496, "戦い": 1497, "勝利": 1498, "FC": 1499, "サ": 1500, "op@@": 1501, "び@@": 1502, "生産": 1503, "理@@": 1504, "47": 1505, "宇宙": 1506, "義": 1507, "初めて": 1508, "像": 1509, "26@@": 1510, "ぎ": 1511, "大正": 1512, "1986": 1513, "かっ": 1514, "火": 1515, "主演": 1516, "選": 1517, "Z": 1518, "少年": 1519, "横浜": 1520, "真": 1521, "グ": 1522, "カン@@": 1523, ")、": 1524, "フジテレビ": 1525, "and@@": 1526, "ところ": 1527, "予定": 1528, "最大": 1529, "節": 1530, "メ": 1531, "親@@": 1532, "経営": 1533, "先@@": 1534, "反@@": 1535, "RE@@": 1536, "ステ@@": 1537, "ec@@": 1538, "ニー": 1539, "千葉": 1540, "運転": 1541, "sh@@": 1542, "ジ": 1543, "常@@": 1544, "90": 1545, "安": 1546, "43": 1547, "目的": 1548, "紀": 1549, "タイ@@": 1550, "青@@": 1551, "do@@": 1552, "含む": 1553, "アン": 1554, "ッシュ": 1555, "ドル": 1556, "by": 1557, "現代": 1558, "庁": 1559, "06": 1560, "領": 1561, "ダイ@@": 1562, "白": 1563, "最高": 1564, "強@@": 1565, "ラー@@": 1566, "イベント": 1567, "番号": 1568, "相手": 1569, "ア・@@": 1570, "基本": 1571, "и@@": 1572, "最も": 1573, "ou@@": 1574, "サー@@": 1575, "II": 1576, "会議": 1577, "産": 1578, "ランド": 1579, "協力": 1580, "ine": 1581, "部隊": 1582, "公": 1583, "夢": 1584, "政@@": 1585, "qu@@": 1586, "ラン": 1587, "上げ": 1588, "27@@": 1589, "社長": 1590, "武": 1591, "支援": 1592, "学会": 1593, "豊@@": 1594, "七": 1595, "ニア": 1596, "テ": 1597, "私": 1598, "テーマ": 1599, "状": 1600, "la@@": 1601, "ず@@": 1602, "独立": 1603, "﻿": 1604, "THE": 1605, "ジョン": 1606, "提供": 1607, "ノー@@": 1608, "伝": 1609, "今": 1610, "福@@": 1611, "04": 1612, "ヴ@@": 1613, "1985": 1614, "書@@": 1615, "のち": 1616, "ロー": 1617, "о@@": 1618, "進": 1619, "戸": 1620, "根": 1621, "ーク": 1622, "警察": 1623, "英@@": 1624, "アジア": 1625, "Mar@@": 1626, "バン@@": 1627, "楽": 1628, "原作": 1629, "銀行": 1630, "ベル@@": 1631, "タイトル": 1632, "江@@": 1633, "限定": 1634, "si@@": 1635, "良@@": 1636, "郷": 1637, "動@@": 1638, "完成": 1639, "競技": 1640, "ム・@@": 1641, "doi": 1642, "1984": 1643, "環境": 1644, "☆": 1645, "age": 1646, "ッチ": 1647, "共同": 1648, "階": 1649, "トゥ@@": 1650, "ヴェ@@": 1651, "連合": 1652, "シー@@": 1653, "集@@": 1654, "画": 1655, "80@@": 1656, "質": 1657, "Th@@": 1658, "不明": 1659, "運動": 1660, "IC": 1661, "編成": 1662, "映像": 1663, "レス": 1664, "韓国": 1665, "京@@": 1666, "言": 1667, "け@@": 1668, "工業": 1669, "農@@": 1670, "も@@": 1671, "48@@": 1672, "電": 1673, "トラ@@": 1674, "内容": 1675, "交@@": 1676, "郵便": 1677, "様": 1678, "結婚": 1679, "装": 1680, "ンド@@": 1681, "報告": 1682, "Pro@@": 1683, "王@@": 1684, "井@@": 1685, "1983": 1686, "与え": 1687, "1970": 1688, "ティ": 1689, "角": 1690, "av@@": 1691, "ぶ@@": 1692, "松": 1693, "調": 1694, "副": 1695, "元@@": 1696, "電@@": 1697, "移籍": 1698, "舞台": 1699, "子@@": 1700, "都@@": 1701, "いく": 1702, "端": 1703, "ンス": 1704, "ダー@@": 1705, "県立": 1706, "イー@@": 1707, "ヤ": 1708, "(@": 1709, "学園": 1710, "Ar@@": 1711, "香": 1712, "録": 1713, "会長": 1714, "間@@": 1715, "}@@": 1716, "太@@": 1717, "藤@@": 1718, "期間": 1719, "報": 1720, "以前": 1721, "始め": 1722, "51": 1723, "ate": 1724, "発見": 1725, "搭載": 1726, "バ": 1727, "理由": 1728, "In@@": 1729, "愛知": 1730, "使わ": 1731, "て@@": 1732, "技": 1733, "食": 1734, "表記": 1735, "江戸": 1736, "スペシャル": 1737, "49": 1738, "運営": 1739, "絵": 1740, "進@@": 1741, "}": 1742, "劇": 1743, "聖": 1744, "1982": 1745, "周年": 1746, "続け": 1747, "学生": 1748, "評価": 1749, "29@@": 1750, "ど@@": 1751, "席": 1752, "バンド": 1753, "IS@@": 1754, "セン@@": 1755, "エル@@": 1756, "モ": 1757, "54": 1758, "撃": 1759, "08": 1760, "脚本": 1761, "ホール": 1762, "指導": 1763, "ける": 1764, "伴い": 1765, "BS": 1766, "ne@@": 1767, "ズ・@@": 1768, "02": 1769, "03": 1770, "データ": 1771, "実際": 1772, "－": 1773, "ビル": 1774, "資料": 1775, "ぶり": 1776, "28@@": 1777, "層": 1778, "デジタル": 1779, "建築": 1780, "ション": 1781, "09": 1782, "文学": 1783, "民@@": 1784, "レース": 1785, "200": 1786, "書房": 1787, "定@@": 1788, "トロ@@": 1789, "よる": 1790, "バイ@@": 1791, "死去": 1792, "新た": 1793, "_{": 1794, "目@@": 1795, "設計": 1796, "構造": 1797, "New": 1798, "ガー": 1799, "なし": 1800, "ニュー@@": 1801, "oc@@": 1802, "大きな": 1803, "ce": 1804, "にかけて": 1805, "倉": 1806, "掲載": 1807, "ev@@": 1808, "1981": 1809, "無": 1810, "近い": 1811, "ep@@": 1812, "重要": 1813, "エンジン": 1814, "56": 1815, "ぐ@@": 1816, "教会": 1817, "対象": 1818, "電気": 1819, "地名": 1820, "52": 1821, "基": 1822, "講談社": 1823, "導入": 1824, "ステージ": 1825, "47@@": 1826, "é@@": 1827, "関@@": 1828, "eg@@": 1829, "鈴木": 1830, "displaystyle": 1831, "ング@@": 1832, "ロン": 1833, "05": 1834, "すべて": 1835, "19@@": 1836, ")”.": 1837, "つけ": 1838, "足": 1839, "団体": 1840, "子供": 1841, "成功": 1842, "リー・@@": 1843, "その他": 1844, "課": 1845, "スーパー": 1846, "空港": 1847, "国家": 1848, "賀": 1849, "人気": 1850, "当@@": 1851, "令": 1852, "作戦": 1853, "開業": 1854, "あ": 1855, "高速": 1856, "事務所": 1857, "tt@@": 1858, "国内": 1859, "観光": 1860, "加え": 1861, "古": 1862, "ad": 1863, "計": 1864, "マー": 1865, "図": 1866, "少女": 1867, "楽曲": 1868, "53": 1869, "代目": 1870, "整備": 1871, "産業": 1872, "ブル@@": 1873, "関連": 1874, "砲": 1875, "宇@@": 1876, "利@@": 1877, "指揮": 1878, "千": 1879, "追加": 1880, "ik@@": 1881, "藩": 1882, "未": 1883, "ファン": 1884, "よ@@": 1885, "ゾ@@": 1886, "―": 1887, "モン@@": 1888, "スペイン": 1889, "まし": 1890, "36@@": 1891, "早@@": 1892, "といった": 1893, "部門": 1894, "ハン@@": 1895, "自由": 1896, "AM@@": 1897, "遊@@": 1898, "ヌ@@": 1899, "億": 1900, "統合": 1901, "薬": 1902, "ブリ@@": 1903, "58": 1904, "工場": 1905, "初@@": 1906, "演出": 1907, "術": 1908, "変@@": 1909, "iv@@": 1910, "ゴ": 1911, "ここ": 1912, "ケ": 1913, "Ma@@": 1914, "1979": 1915, "07": 1916, "オリンピック": 1917, "OR@@": 1918, "良": 1919, "行動": 1920, "泉": 1921, "利": 1922, "An@@": 1923, "そ@@": 1924, "登録": 1925, "鉄@@": 1926, "der": 1927, "活躍": 1928, "右": 1929, "競馬": 1930, "エ": 1931, "相": 1932, "it": 1933, "大臣": 1934, "しか": 1935, "守": 1936, "感": 1937, "59": 1938, "別@@": 1939, ".@@": 1940, "tion": 1941, "額": 1942, "プロデューサー": 1943, "vi@@": 1944, "表示": 1945, "ビー@@": 1946, "57": 1947, "遠@@": 1948, "秀@@": 1949, "時期": 1950, "スティ@@": 1951, "シー": 1952, "河": 1953, "主人公": 1954, "pro@@": 1955, "塚": 1956, "成績": 1957, "cm": 1958, "軍@@": 1959, "部@@": 1960, "好@@": 1961, "ch": 1962, "飛@@": 1963, "佐藤": 1964, "ほとんど": 1965, "De@@": 1966, "!@@": 1967, "ge": 1968, "フォー@@": 1969, "ラ・@@": 1970, "居": 1971, "浦": 1972, "澤": 1973, "切れ": 1974, "浜": 1975, "入っ": 1976, "月@@": 1977, "解@@": 1978, "改称": 1979, "ウス": 1980, "文字": 1981, "半@@": 1982, "パン@@": 1983, "芸術": 1984, "知": 1985, "田中": 1986, "DVD": 1987, "関": 1988, "過去": 1989, "国民": 1990, "ay@@": 1991, "男性": 1992, "ク・@@": 1993, "友": 1994, "島@@": 1995, "個人": 1996, "自ら": 1997, "特徴": 1998, "若@@": 1999, "ホーム": 2000, "ルス": 2001, "クス": 2002, "陸軍": 2003, "枠": 2004, "従@@": 2005, "初期": 2006, "ール・@@": 2007, "誕生": 2008, "跡": 2009, "物@@": 2010, "時@@": 2011, "?@@": 2012, "同時に": 2013, "支@@": 2014, "一郎": 2015, "決@@": 2016, "工": 2017, "新潟": 2018, "退@@": 2019, "黒": 2020, "口@@": 2021, "再び": 2022, "自然": 2023, "1978": 2024, "展開": 2025, "症": 2026, "クレ@@": 2027, "土": 2028, "区間": 2029, "UN@@": 2030, "リスト": 2031, "sp@@": 2032, "張": 2033, "ity": 2034, "コーナー": 2035, "紙": 2036, "恋": 2037, "敗": 2038, "500": 2039, "労働": 2040, "多": 2041, "球": 2042, "ハ": 2043, "着@@": 2044, "ーム": 2045, "よく": 2046, "pl@@": 2047, "勢": 2048, "制度": 2049, "男子": 2050, "に対し": 2051, "テレビ朝日": 2052, "好き": 2053, "学者": 2054, "回避": 2055, "走": 2056, "地球": 2057, "1976": 2058, "移動": 2059, "徳": 2060, "スク@@": 2061, "Al@@": 2062, "1972": 2063, "大統領": 2064, "修@@": 2065, "幸@@": 2066, "様々": 2067, "1975": 2068, "横@@": 2069, "パー": 2070, "為": 2071, "差": 2072, "くる": 2073, "深@@": 2074, "しまっ": 2075, "満@@": 2076, "プレス": 2077, "認め": 2078, "輪": 2079, "属": 2080, "急@@": 2081, "シェ@@": 2082, "38@@": 2083, "初代": 2084, "62": 2085, "性格": 2086, "津@@": 2087, "まま": 2088, "ff@@": 2089, "ょう@@": 2090, "体@@": 2091, "言葉": 2092, "戦@@": 2093, "寄@@": 2094, "配@@": 2095, "弟": 2096, "君": 2097, "健@@": 2098, "ベル": 2099, "レン": 2100, "産@@": 2101, "61": 2102, "ッツ": 2103, "女優": 2104, "ER": 2105, "モン": 2106, "帯": 2107, "方法": 2108, "1977": 2109, "\".": 2110, "NE@@": 2111, "もと": 2112, "天皇": 2113, "羽@@": 2114, "ow@@": 2115, "EN@@": 2116, "議会": 2117, "岸": 2118, "どう": 2119, "美術": 2120, "日本テレビ": 2121, "Sp@@": 2122, "動物": 2123, "ry": 2124, "本部": 2125, "а@@": 2126, "Ne@@": 2127, "受@@": 2128, "キング": 2129, "陽": 2130, "段": 2131, "RO@@": 2132, "京": 2133, "連盟": 2134, "工事": 2135, "mm": 2136, "右@@": 2137, "近@@": 2138, "藤": 2139, "結@@": 2140, "IC@@": 2141, "伝@@": 2142, "ドラ@@": 2143, "st": 2144, "Q": 2145, "ご@@": 2146, "No": 2147, "項目": 2148, "1973": 2149, "森@@": 2150, "グラ@@": 2151, "造": 2152, "言わ": 2153, "る@@": 2154, "ran@@": 2155, "中継": 2156, "阿@@": 2157, "状況": 2158, "作家": 2159, "鉄": 2160, "域": 2161, "料": 2162, "37@@": 2163, "源": 2164, "聖@@": 2165, "いい": 2166, "龍": 2167, "]@@": 2168, "引退": 2169, "図書館": 2170, "CO@@": 2171, "学部": 2172, "保@@": 2173, "左@@": 2174, "十@@": 2175, "CM": 2176, "ok@@": 2177, "ライン": 2178, "福島": 2179, "＆": 2180, "山口": 2181, "埼玉": 2182, "恵": 2183, "ウォ@@": 2184, "結成": 2185, "チャンネル": 2186, "演奏": 2187, "ね@@": 2188, "追@@": 2189, "幸": 2190, "いっ": 2191, "試験": 2192, "以来": 2193, "列": 2194, "ヨーロッパ": 2195, "板": 2196, "ほ@@": 2197, "会@@": 2198, "非": 2199, "ie": 2200, "剣": 2201, "越": 2202, "メン@@": 2203, "学科": 2204, "フレ@@": 2205, "歌@@": 2206, "ぎ@@": 2207, "忠@@": 2208, "空@@": 2209, "ざ@@": 2210, "息子": 2211, "ゲスト": 2212, "AC@@": 2213, "医療": 2214, "便": 2215, "ワ": 2216, "神戸": 2217, "メートル": 2218, "速": 2219, "博士": 2220, "述べ": 2221, "中村": 2222, "決勝": 2223, "ザ": 2224, "事故": 2225, "1974": 2226, "多数": 2227, "出す": 2228, "素@@": 2229, "魔": 2230, "リア@@": 2231, "am": 2232, "プレ@@": 2233, "仕事": 2234, "病": 2235, "ヌ": 2236, "洋@@": 2237, "一番": 2238, "工@@": 2239, "大戦": 2240, "ob@@": 2241, "，": 2242, "神奈川": 2243, "永@@": 2244, "俳優": 2245, "with": 2246, "64": 2247, "ぶ": 2248, "入れ": 2249, "辞典": 2250, "家族": 2251, "1971": 2252, "込み": 2253, "Con@@": 2254, "秋": 2255, "喜@@": 2256, "コース": 2257, "行政": 2258, "ザー": 2259, "由来": 2260, "保": 2261, "児": 2262, "効果": 2263, "65": 2264, "市民": 2265, "連邦": 2266, "合わせ": 2267, "ter": 2268, "件": 2269, "組合": 2270, "精@@": 2271, "鳥": 2272, "五@@": 2273, "片@@": 2274, "生徒": 2275, "63": 2276, "スカ@@": 2277, "下さい": 2278, "九": 2279, "弘": 2280, "朝鮮": 2281, "）@@": 2282, "まり": 2283, "面@@": 2284, "紀@@": 2285, "方面": 2286, "ワー@@": 2287, "1@@": 2288, "変化": 2289, "治@@": 2290, "装備": 2291, "翼": 2292, "奈": 2293, "ろ@@": 2294, "大きく": 2295, "og@@": 2296, "友@@": 2297, "静岡": 2298, "TO@@": 2299, "ユー@@": 2300, "周辺": 2301, "情": 2302, "エル": 2303, "バル@@": 2304, "春@@": 2305, "仕@@": 2306, "形式": 2307, "顔": 2308, "非常": 2309, "元年": 2310, "ブレ@@": 2311, "ウム": 2312, "ゆ@@": 2313, "1969": 2314, "馬@@": 2315, "1960": 2316, "沖縄": 2317, "そう": 2318, "全体": 2319, "出典": 2320, "連載": 2321, "タイ": 2322, "湖": 2323, "清": 2324, "プロジェクト": 2325, "意": 2326, "取": 2327, "移転": 2328, "archive": 2329, "ing@@": 2330, "ニー@@": 2331, "AL": 2332, "フラン@@": 2333, "ベスト": 2334, "細@@": 2335, "共和": 2336, "女@@": 2337, "uc@@": 2338, "ンド": 2339, "極@@": 2340, "雪": 2341, "衆議院": 2342, "ファイ@@": 2343, "確認": 2344, "ay": 2345, "優@@": 2346, "霊": 2347, "？": 2348, "異@@": 2349, "む@@": 2350, "オープン": 2351, "コン": 2352, "アイドル": 2353, "事典": 2354, "麻@@": 2355, "39@@": 2356, "項": 2357, "姫": 2358, "個": 2359, "IT@@": 2360, "スタジオ": 2361, "本社": 2362, "圧": 2363, "べき": 2364, "短@@": 2365, "兄": 2366, "トル@@": 2367, "業務": 2368, "長野": 2369, "49@@": 2370, "LE@@": 2371, "ッチ@@": 2372, "込ん": 2373, "!（": 2374, "げ": 2375, "強い": 2376, "値": 2377, "似": 2378, "羽": 2379, "心@@": 2380, "留@@": 2381, "キー": 2382, "共@@": 2383, "ギャ@@": 2384, "直": 2385, "比@@": 2386, "未@@": 2387, "商@@": 2388, "チョ@@": 2389, "Q@@": 2390, "リス": 2391, "いずれ": 2392, "規模": 2393, "oo@@": 2394, "装置": 2395, "普通": 2396, "造@@": 2397, "雑誌": 2398, "アップ": 2399, "香@@": 2400, "準": 2401, "曖昧": 2402, "系統": 2403, "ライト": 2404, "てる": 2405, "75": 2406, "挙げ": 2407, "両@@": 2408, "専用": 2409, "新しい": 2410, "秋@@": 2411, "od@@": 2412, "高橋": 2413, "血": 2414, "首": 2415, "所@@": 2416, "ツアー": 2417, "富@@": 2418, "クラス": 2419, "破@@": 2420, "まっ": 2421, "ビ": 2422, "タイプ": 2423, "保護": 2424, "署": 2425, "解説": 2426, "山田": 2427, "se@@": 2428, "表現": 2429, "’": 2430, "客": 2431, "展": 2432, "尾@@": 2433, "王国": 2434, "チュ@@": 2435, "助": 2436, "ロッ@@": 2437, ".,": 2438, "機構": 2439, "宝": 2440, "経験": 2441, "圏": 2442, "刑事": 2443, "運用": 2444, "政策": 2445, "1968": 2446, "遺@@": 2447, "由@@": 2448, "メディア": 2449, "左": 2450, "探し": 2451, "83": 2452, "az@@": 2453, "彼ら": 2454, "有": 2455, "アナウンサー": 2456, "ロック": 2457, "メイン": 2458, "食@@": 2459, "q": 2460, "取得": 2461, "味": 2462, "est": 2463, "案": 2464, "ジャパン": 2465, "って": 2466, "本人": 2467, "篇": 2468, "渡@@": 2469, "ill@@": 2470, "インタビュー": 2471, "ほぼ": 2472, "article": 2473, "н@@": 2474, "е@@": 2475, "俊@@": 2476, "選ん": 2477, "旅": 2478, "距離": 2479, "奥@@": 2480, "改正": 2481, "輸送": 2482, "電子": 2483, "打@@": 2484, "安全": 2485, "雲": 2486, "台湾": 2487, "ud@@": 2488, "まる": 2489, "ub@@": 2490, "温泉": 2491, "在": 2492, "果たし": 2493, "Le@@": 2494, "玉": 2495, "man": 2496, "火@@": 2497, "世@@": 2498, "船@@": 2499, "飛行": 2500, "de@@": 2501, "適切": 2502, "ON": 2503, "用@@": 2504, "ov@@": 2505, "パ": 2506, "坂@@": 2507, "村@@": 2508, "カップ": 2509, "ER@@": 2510, "違い": 2511, "モー@@": 2512, "博@@": 2513, "(@@": 2514, "熱": 2515, "レッ@@": 2516, "ボ": 2517, "有する": 2518, "ナイ@@": 2519, "ポー@@": 2520, "かし": 2521, "九州": 2522, "エー@@": 2523, "ve": 2524, "系列": 2525, "起@@": 2526, "料理": 2527, "越@@": 2528, "生物": 2529, "成立": 2530, "son": 2531, "ブル": 2532, "ex@@": 2533, "ベース": 2534, "スペ@@": 2535, "熱@@": 2536, "ルド": 2537, "!!": 2538, "オリ@@": 2539, "服": 2540, "防@@": 2541, "放@@": 2542, "草": 2543, "事@@": 2544, "ンズ": 2545, "含ま": 2546, "管": 2547, "舞@@": 2548, "one": 2549, "トップ": 2550, "af@@": 2551, "Press": 2552, "インド": 2553, "対戦": 2554, "絶@@": 2555, "母@@": 2556, "吉田": 2557, "拡大": 2558, "しよ": 2559, "ソフト": 2560, "CH@@": 2561, "ard": 2562, "行い": 2563, "ガン@@": 2564, "年生": 2565, "主張": 2566, "死亡": 2567, "週": 2568, "タン": 2569, "\"@@": 2570, "ヶ@@": 2571, "支配": 2572, "内閣": 2573, "開設": 2574, "あるいは": 2575, "ガー@@": 2576, "アク@@": 2577, "乗@@": 2578, "67": 2579, "植物": 2580, "再@@": 2581, "沼": 2582, "裕@@": 2583, "取締役": 2584, "翌": 2585, "ボー@@": 2586, "発足": 2587, "東京@@": 2588, "補@@": 2589, "フラ@@": 2590, "World": 2591, "異": 2592, "台@@": 2593, "仁": 2594, "要@@": 2595, "こう": 2596, "かり": 2597, "スキー": 2598, "博物館": 2599, "ごと": 2600, "関東": 2601, "eb@@": 2602, "用語": 2603, "県@@": 2604, "途中": 2605, "説明": 2606, "SH@@": 2607, "プリ@@": 2608, "ey": 2609, "店舗": 2610, "○": 2611, "現@@": 2612, "使っ": 2613, "伝説": 2614, "Be@@": 2615, "Ex@@": 2616, "断@@": 2617, "end@@": 2618, "人々": 2619, "岡山": 2620, "護": 2621, "草@@": 2622, "失@@": 2623, "1967": 2624, "山本": 2625, "主要": 2626, "見つけ": 2627, "持ち": 2628, "ug@@": 2629, "べ": 2630, "機@@": 2631, "LO@@": 2632, "小林": 2633, "Vol": 2634, "悪@@": 2635, "ぼ@@": 2636, "形成": 2637, "YouTube": 2638, "残@@": 2639, "材": 2640, "受ける": 2641, "正式": 2642, "Par@@": 2643, "休@@": 2644, "朝日新聞": 2645, "裏": 2646, "名誉": 2647, "華": 2648, "稲@@": 2649, "町@@": 2650, "−": 2651, "LI@@": 2652, "ベン@@": 2653, "音@@": 2654, "同じく": 2655, "本線": 2656, "スター@@": 2657, "種類": 2658, "根@@": 2659, "テン@@": 2660, "net": 2661, "返@@": 2662, "次@@": 2663, "長崎": 2664, "そこ": 2665, "理事": 2666, "収@@": 2667, "具": 2668, "令和": 2669, "ical": 2670, "66": 2671, "程度": 2672, "レギュラー": 2673, "投@@": 2674, "酸": 2675, "トー@@": 2676, "専@@": 2677, "なけれ": 2678, "電車": 2679, "寺@@": 2680, "69": 2681, "ボール": 2682, "pdf": 2683, "竹@@": 2684, "冷@@": 2685, "au@@": 2686, "谷@@": 2687, "せ@@": 2688, "ット・@@": 2689, ".;": 2690, "素": 2691, "IN": 2692, "ナー@@": 2693, "秋田": 2694, "兵庫": 2695, "門@@": 2696, "外国": 2697, "ック・@@": 2698, "ロス": 2699, "広": 2700, "防衛": 2701, "施行": 2702, "在@@": 2703, "ニューヨーク": 2704, "AL@@": 2705, "連": 2706, "ショ@@": 2707, "告": 2708, "グリ@@": 2709, "助@@": 2710, "選出": 2711, "松本": 2712, "300": 2713, "レコード": 2714, "候補": 2715, "逆": 2716, "言語": 2717, "FM": 2718, "製品": 2719, "サー": 2720, "巡@@": 2721, "留": 2722, "住民": 2723, "ell": 2724, "法律": 2725, "御": 2726, "ビデオ": 2727, "切@@": 2728, "ベー@@": 2729, "唯一": 2730, "げる": 2731, "季": 2732, "親": 2733, "条件": 2734, "日本人": 2735, "住@@": 2736, "亜": 2737, "ローマ": 2738, "夏@@": 2739, "ッ": 2740, "魔法": 2741, "仙台": 2742, "殿": 2743, "浮@@": 2744, "丘": 2745, "破壊": 2746, "矢@@": 2747, "ver@@": 2748, "復帰": 2749, "万@@": 2750, "調@@": 2751, "ric@@": 2752, "ナタリー": 2753, "ly": 2754, "伊藤": 2755, "81": 2756, "格": 2757, "ケー@@": 2758, "札幌": 2759, "ビー": 2760, "電話": 2761, "洋": 2762, "石川": 2763, "ell@@": 2764, "王座": 2765, "週刊": 2766, "犬": 2767, "ホテル": 2768, "苦@@": 2769, "all": 2770, "アド@@": 2771, "参@@": 2772, "岐阜": 2773, "187@@": 2774, "付近": 2775, "総務": 2776, "特定": 2777, "荒@@": 2778, "AN": 2779, "フリー": 2780, "朝@@": 2781, "Car@@": 2782, "欠@@": 2783, "99": 2784, "オル@@": 2785, "雅@@": 2786, "能": 2787, "葉@@": 2788, "ど": 2789, "SE@@": 2790, "求め": 2791, "from": 2792, "観": 2793, "ary": 2794, "ぐ": 2795, "望": 2796, "里@@": 2797, "マッ@@": 2798, "セット": 2799, "極": 2800, "鬼": 2801, "反対": 2802, "声優": 2803, "閉@@": 2804, "82": 2805, "鳥@@": 2806, "芸": 2807, "タイム": 2808, "1966": 2809, "投票": 2810, "化学": 2811, "害": 2812, "Ph@@": 2813, "米@@": 2814, "岩": 2815, "kg": 2816, "加入": 2817, "お知らせ": 2818, "BO@@": 2819, "復活": 2820, "障害": 2821, "ib@@": 2822, "捕@@": 2823, "撃@@": 2824, "精神": 2825, "詳細": 2826, "鹿児島": 2827, "難@@": 2828, "大学院": 2829, "市内": 2830, "歌手": 2831, "炎": 2832, "消@@": 2833, "待@@": 2834, "徳@@": 2835, "アル": 2836, "戸@@": 2837, "市場": 2838, "順": 2839, "BC": 2840, "ant@@": 2841, "好": 2842, "方式": 2843, "AD@@": 2844, "杯": 2845, "血@@": 2846, "過@@": 2847, "os": 2848, "発展": 2849, "円@@": 2850, "re": 2851, "暦": 2852, "司令": 2853, "玉@@": 2854, "com@@": 2855, "コミック": 2856, "妹": 2857, "分類": 2858, "壁": 2859, "シーン": 2860, "隆@@": 2861, "л@@": 2862, "柄": 2863, "被害": 2864, "オン": 2865, "ギ": 2866, "デ": 2867, "ワールド": 2868, "雨": 2869, "1964": 2870, "奈@@": 2871, "宝@@": 2872, "南部": 2873, "書店": 2874, "共": 2875, "栄": 2876, "トレ@@": 2877, "熊本": 2878, "将": 2879, "銀": 2880, "帰@@": 2881, "陸上": 2882, "ダン@@": 2883, "貴@@": 2884, "all@@": 2885, "青": 2886, "営": 2887, "記載": 2888, "AK@@": 2889, "舎": 2890, "1965": 2891, "弾@@": 2892, "se": 2893, "フル@@": 2894, "陣": 2895, "ドゥ@@": 2896, "岡@@": 2897, "１": 2898, "SP@@": 2899, "For@@": 2900, "数@@": 2901, "罪": 2902, "ist@@": 2903, "突@@": 2904, "東映": 2905, "夜@@": 2906, "テレビ@@": 2907, "入る": 2908, "ガス": 2909, "アニ@@": 2910, "付き": 2911, "50@@": 2912, "旧@@": 2913, "皇@@": 2914, "断": 2915, "意@@": 2916, "進出": 2917, "来@@": 2918, "はじめ": 2919, "死@@": 2920, "毛": 2921, "ポイント": 2922, "赤": 2923, "大型": 2924, "ワイ@@": 2925, "仮@@": 2926, "兼": 2927, "University": 2928, "スラ@@": 2929, "博": 2930, "浅@@": 2931, "核": 2932, "引@@": 2933, "将軍": 2934, "商品": 2935, "!!@@": 2936, "順@@": 2937, "近く": 2938, "全日本": 2939, "ang@@": 2940, "得点": 2941, "次郎": 2942, "塩@@": 2943, "Un@@": 2944, "スタート": 2945, "キー@@": 2946, "ight": 2947, "新聞社": 2948, "福": 2949, "骨": 2950, "ブロ@@": 2951, "イ・@@": 2952, "軽@@": 2953, "パン": 2954, "平均": 2955, "波@@": 2956, "97@@": 2957, "北緯": 2958, "海外": 2959, "隆": 2960, "続": 2961, "費": 2962, "各@@": 2963, "books": 2964, "殺人": 2965, "シア": 2966, "布": 2967, "竜": 2968, "記述": 2969, "起": 2970, "東日本": 2971, "ミュージック": 2972, "方向": 2973, "半": 2974, "典": 2975, "取@@": 2976, "SS": 2977, "探@@": 2978, "批判": 2979, "以後": 2980, "乱": 2981, "運@@": 2982, "刊": 2983, "新設": 2984, "ore": 2985, "丸@@": 2986, "ハウス": 2987, "池": 2988, "かい": 2989, "塔": 2990, "回戦": 2991, "セ": 2992, "ks": 2993, "不": 2994, "言う": 2995, "持ち@@": 2996, "85": 2997, "ヒ": 2998, "なか": 2999, "our@@": 3000, "事務": 3001, "回@@": 3002, "近代": 3003, "扱い": 3004, "桜": 3005, "売@@": 3006, "かつ": 3007, "per@@": 3008, "続い": 3009, "帝": 3010, "合い": 3011, "兄弟": 3012, "立て": 3013, "作@@": 3014, "興": 3015, "86": 3016, "加藤": 3017, "con@@": 3018, "房": 3019, "渡辺": 3020, "後半": 3021, "礼": 3022, "88": 3023, "ソング": 3024, "57@@": 3025, "銃": 3026, "腕": 3027, "彩": 3028, "カル": 3029, "そ": 3030, "歩": 3031, "ディー@@": 3032, "チュー@@": 3033, "楽@@": 3034, "廃@@": 3035, "史上": 3036, "ブログ": 3037, "}}@@": 3038, "住宅": 3039, "タウン": 3040, "望@@": 3041, "編入": 3042, "ギター": 3043, "テレビ東京": 3044, "車@@": 3045, "地震": 3046, "デュ@@": 3047, "念": 3048, "ot": 3049, "描か": 3050, "想": 3051, "ON@@": 3052, "報道": 3053, "ショー": 3054, "市長": 3055, "よれ": 3056, "文化財": 3057, "事実": 3058, "武器": 3059, "ユニット": 3060, "栄@@": 3061, "艦隊": 3062, "育@@": 3063, "含め": 3064, "屋@@": 3065, "父親": 3066, "東北": 3067, "ラス": 3068, "林@@": 3069, "周": 3070, "感@@": 3071, "宿": 3072, "競走": 3073, "98": 3074, "登@@": 3075, "スタン@@": 3076, "向@@": 3077, "竹": 3078, "社@@": 3079, "シティ": 3080, "之@@": 3081, "縁": 3082, "出さ": 3083, "視": 3084, "経由": 3085, "オンライン": 3086, "影": 3087, "特殊": 3088, "建": 3089, "部屋": 3090, "富山": 3091, "諸": 3092, "示す": 3093, "1963": 3094, "スコ@@": 3095, "ナ・@@": 3096, "終@@": 3097, "スタッフ": 3098, "古代": 3099, "降@@": 3100, "刊行": 3101, "実験": 3102, "エイ@@": 3103, "習@@": 3104, "92": 3105, "パリ": 3106, "1945": 3107, "薬@@": 3108, "ian": 3109, "悪": 3110, "税": 3111, "87@@": 3112, "達成": 3113, "入学": 3114, "ast": 3115, "満": 3116, "ブランド": 3117, "95": 3118, "News": 3119, "地元": 3120, "甲@@": 3121, "ナイト": 3122, "抜@@": 3123, "規定": 3124, "財団": 3125, "パラ@@": 3126, "細胞": 3127, "挑戦": 3128, "可@@": 3129, "基@@": 3130, "論@@": 3131, "穂": 3132, "メイ@@": 3133, "Ad@@": 3134, "Bi@@": 3135, "暴@@": 3136, "傷": 3137, "プロフィール": 3138, "基地": 3139, "園@@": 3140, "受け@@": 3141, "務める": 3142, "称": 3143, "肉": 3144, "68": 3145, "パイ@@": 3146, "ゴー@@": 3147, "ass@@": 3148, "ッド@@": 3149, "検@@": 3150, "1962": 3151, "清水": 3152, "近": 3153, "1950": 3154, "新宿": 3155, "オン@@": 3156, "ペン@@": 3157, "商業": 3158, "NEWS": 3159, "トル": 3160, "捜査": 3161, "延長": 3162, "Bo@@": 3163, "にとって": 3164, "ホー@@": 3165, "感染": 3166, "射": 3167, "土地": 3168, "ィ": 3169, "枝": 3170, "ter@@": 3171, "認定": 3172, "メー@@": 3173, "直接": 3174, "変": 3175, "rac@@": 3176, "UR@@": 3177, "区域": 3178, "ウェブサイト": 3179, "農業": 3180, "文書": 3181, "未来": 3182, "落@@": 3183, "陸": 3184, "採@@": 3185, "ers@@": 3186, "らい": 3187, "ドン": 3188, "単@@": 3189, "離@@": 3190, "医": 3191, "ケン@@": 3192, "美術館": 3193, "髪": 3194, "強": 3195, "所有": 3196, "メーカー": 3197, "名義": 3198, "加": 3199, "追い@@": 3200, "93": 3201, "1000": 3202, "スク": 3203, "交流": 3204, "乗車": 3205, "デイ@@": 3206, "ure": 3207, "そのまま": 3208, "米国": 3209, "ロンドン": 3210, "ランキング": 3211, "歩@@": 3212, "李": 3213, "七@@": 3214, "89": 3215, "交差点": 3216, "衣": 3217, "貴": 3218, "わり": 3219, "スーパー@@": 3220, "積@@": 3221, ",@@": 3222, "選択": 3223, "コロ@@": 3224, "張り替え": 3225, "奈良": 3226, "支持": 3227, "クション": 3228, "ES": 3229, "脳": 3230, "込ま": 3231, "対策": 3232, "井上": 3233, "密@@": 3234, "表@@": 3235, "２": 3236, "行為": 3237, "1961": 3238, "冬": 3239, "思@@": 3240, "兵@@": 3241, "取り": 3242, "発電": 3243, "速度": 3244, "予選": 3245, "200@@": 3246, "ment": 3247, "作ら": 3248, "仕様": 3249, "革命": 3250, "land": 3251, "混@@": 3252, "ルト@@": 3253, "足@@": 3254, "ワン@@": 3255, "陸@@": 3256, "ver": 3257, "頭@@": 3258, "水先案内": 3259, "メント": 3260, "機械": 3261, "配置": 3262, "—": 3263, "動画": 3264, "見る": 3265, "適@@": 3266, "酒": 3267, "aw@@": 3268, "if@@": 3269, "購入": 3270, "に関して": 3271, "推進": 3272, "ウォー@@": 3273, "共演": 3274, "ü@@": 3275, "1955": 3276, "陽@@": 3277, "修": 3278, "刀": 3279, "選ば": 3280, "語っ": 3281, "雄@@": 3282, "コレクション": 3283, "フ・@@": 3284, "ah@@": 3285, "官@@": 3286, "分け": 3287, "三郎": 3288, "つい": 3289, "戦士": 3290, "詩": 3291, "91": 3292, "激@@": 3293, "原因": 3294, "価": 3295, "バージョン": 3296, "つつ": 3297, "エネルギー": 3298, "MO@@": 3299, "警@@": 3300, "tic": 3301, "for@@": 3302, "イメージ": 3303, "積": 3304, "ジャー": 3305, "DE@@": 3306, "60@@": 3307, "クト": 3308, "戦後": 3309, "96": 3310, "すぐ": 3311, "老@@": 3312, "uk@@": 3313, "立ち": 3314, "強化": 3315, "有名": 3316, "TR@@": 3317, "茂": 3318, "84": 3319, "ブック": 3320, "智@@": 3321, "明らか": 3322, "キュ@@": 3323, "アラ@@": 3324, "関西": 3325, "処理": 3326, "迎え": 3327, "ミー": 3328, "ブルク": 3329, "幅": 3330, "成長": 3331, "基準": 3332, "テレ@@": 3333, "ice": 3334, "茨城": 3335, "取っ": 3336, "作成": 3337, "弘@@": 3338, "則": 3339, "改造": 3340, "主催": 3341, "談": 3342, "ID@@": 3343, "仲間": 3344, "著作": 3345, "1959": 3346, "iz@@": 3347, "res@@": 3348, "ティング": 3349, "幕": 3350, "達@@": 3351, "ウン@@": 3352, "誰": 3353, "we@@": 3354, "AM": 3355, "デル@@": 3356, "400": 3357, "指@@": 3358, "拠点": 3359, "LIVE": 3360, "離れ": 3361, "魚": 3362, "医@@": 3363, "ドリ@@": 3364, "課程": 3365, "派遣": 3366, "ストーリー": 3367, "宗@@": 3368, "代わり": 3369, "ルフ": 3370, "ast@@": 3371, "切り": 3372, "先生": 3373, "行き": 3374, "戦隊": 3375, "孫": 3376, "停止": 3377, "ann@@": 3378, "退": 3379, "獣": 3380, "解": 3381, "康@@": 3382, "翌年": 3383, "ホームページ": 3384, "ダン": 3385, "剤": 3386, "ING": 3387, "備@@": 3388, "移@@": 3389, "部長": 3390, "ソー@@": 3391, "スタ": 3392, "政権": 3393, "分野": 3394, "フル": 3395, "券": 3396, "増加": 3397, "誠": 3398, "軍事": 3399, "理論": 3400, "決め": 3401, "87": 3402, "直後": 3403, "カラー": 3404, "グラン@@": 3405, "デン@@": 3406, "乗り@@": 3407, "ミニ@@": 3408, "伸@@": 3409, "スピ@@": 3410, "選@@": 3411, "ong": 3412, "仏": 3413, "72": 3414, "建物": 3415, "オ・@@": 3416, "PS": 3417, "サン": 3418, "残っ": 3419, "集団": 3420, "裏@@": 3421, "改@@": 3422, "par@@": 3423, "デ・@@": 3424, "空間": 3425, "（*": 3426, "ージ": 3427, "なさ": 3428, "製@@": 3429, "タル@@": 3430, "応@@": 3431, "（@@": 3432, "東経": 3433, "養@@": 3434, "ジー@@": 3435, "94": 3436, "マーク": 3437, "ソ": 3438, "落": 3439, "招@@": 3440, "大分": 3441, "SU@@": 3442, "図@@": 3443, "宮崎": 3444, "筑@@": 3445, "ds": 3446, "殺": 3447, "程": 3448, "Qu@@": 3449, "ぬ": 3450, "97": 3451, "羅": 3452, "希": 3453, "クト@@": 3454, "ue": 3455, "LE": 3456, "制御": 3457, "機動": 3458, "アリ@@": 3459, "ory": 3460, "旗": 3461, "送": 3462, "佐": 3463, "ピアノ": 3464, "ence": 3465, "ヘル@@": 3466, "堀@@": 3467, "流れ": 3468, "解散": 3469, "救@@": 3470, "En@@": 3471, "上記": 3472, "反": 3473, "mar@@": 3474, "語@@": 3475, "ゼ": 3476, "les": 3477, "ow": 3478, "並@@": 3479, "茶@@": 3480, "畑": 3481, "那@@": 3482, "展示": 3483, "作業": 3484, "責任": 3485, "ノン": 3486, "新人": 3487, "11@@": 3488, "教師": 3489, "設け": 3490, "大賞": 3491, "モード": 3492, "衆": 3493, "ヴ": 3494, "ale": 3495, "202@@": 3496, "地上": 3497, "余@@": 3498, "角川": 3499, "Cl@@": 3500, "統一": 3501, "首相": 3502, "龍@@": 3503, "砲@@": 3504, "指摘": 3505, "づ@@": 3506, "1958": 3507, "姓": 3508, "号線": 3509, "能@@": 3510, "貴族": 3511, "クル@@": 3512, "及@@": 3513, "残し": 3514, "ath@@": 3515, "la": 3516, "北部": 3517, "百@@": 3518, "配": 3519, "IM@@": 3520, "バック": 3521, "ひとつ": 3522, "マリ@@": 3523, "ヒット": 3524, "ai": 3525, "鶴@@": 3526, "杉@@": 3527, "更新": 3528, "カイ@@": 3529, "裁判所": 3530, "グレ@@": 3531, "1956": 3532, "売": 3533, "45@@": 3534, "辺": 3535, "寿": 3536, "クー@@": 3537, "port": 3538, "ルド@@": 3539, "飯@@": 3540, "思わ": 3541, "失敗": 3542, "条約": 3543, "宗教": 3544, "レット": 3545, "77": 3546, "日刊": 3547, "71": 3548, "もう": 3549, "首@@": 3550, "Se@@": 3551, "恵@@": 3552, "奪@@": 3553, "AG@@": 3554, "フト": 3555, "AP@@": 3556, "仁@@": 3557, "コーチ": 3558, "習": 3559, "yn@@": 3560, "飲@@": 3561, "エリア": 3562, "保険": 3563, "注@@": 3564, "標準": 3565, "中止": 3566, "Music": 3567, "実現": 3568, "算": 3569, "カナダ": 3570, "身@@": 3571, "浩@@": 3572, "智": 3573, "プレイ": 3574, "ナン@@": 3575, "AT": 3576, "通算": 3577, "起こし": 3578, "IG@@": 3579, "従来": 3580, "六@@": 3581, "旅行": 3582, "垣": 3583, "US@@": 3584, "@": 3585, "т@@": 3586, "Am@@": 3587, "р@@": 3588, "ボン": 3589, "取引": 3590, "PC": 3591, "角@@": 3592, "SO@@": 3593, "演@@": 3594, "面積": 3595, "臣": 3596, "爆@@": 3597, "学院": 3598, "レベル": 3599, "末@@": 3600, "児童": 3601, "校@@": 3602, "創設": 3603, "与": 3604, "題": 3605, "祖": 3606, "タル": 3607, "伝え": 3608, "試@@": 3609, "隻": 3610, "巨大": 3611, "ドロ@@": 3612, "呼ぶ": 3613, "納@@": 3614, "基礎": 3615, "猫": 3616, "虫": 3617, "まだ": 3618, ")。": 3619, "通称": 3620, "例えば": 3621, "言っ": 3622, "体制": 3623, "1954": 3624, "探偵": 3625, "運": 3626, "データベース": 3627, "富士@@": 3628, "老": 3629, "朗": 3630, "イド": 3631, "SP": 3632, "形態": 3633, "宏": 3634, "･": 3635, "独自": 3636, "敗れ": 3637, "除く": 3638, "スケ@@": 3639, "ビア": 3640, "覚": 3641, "振@@": 3642, "73": 3643, "78": 3644, "軽": 3645, "菜": 3646, "案内": 3647, "支店": 3648, "各地": 3649, "ピー@@": 3650, "須@@": 3651, "披露": 3652, "プライ@@": 3653, "軌道": 3654, "民族": 3655, "III": 3656, "スティー@@": 3657, "同社": 3658, "家庭": 3659, "いくつ": 3660, "化@@": 3661, "ニック": 3662, "DS": 3663, "ダンス": 3664, "勝ち": 3665, "バッ@@": 3666, "ナル@@": 3667, "役@@": 3668, "無い": 3669, "制限": 3670, "高く": 3671, "sc@@": 3672, "景": 3673, "覚@@": 3674, "誤@@": 3675, "ワン": 3676, "ジー": 3677, "宣言": 3678, "漢": 3679, "弁": 3680, "ッツ@@": 3681, "Sch@@": 3682, "色@@": 3683, "守@@": 3684, "伝統": 3685, "テン": 3686, "ひ": 3687, "ash@@": 3688, "スタイル": 3689, "芸@@": 3690, "ィ@@": 3691, "監修": 3692, "ヶ": 3693, "竜@@": 3694, "会員": 3695, "打ち@@": 3696, "フランス語": 3697, "とう": 3698, "ST": 3699, "We@@": 3700, "居@@": 3701, "経@@": 3702, "ons": 3703, "強く": 3704, "Mo@@": 3705, "出来": 3706, "視@@": 3707, "ology": 3708, "978@@": 3709, "ゲン": 3710, "豊": 3711, "湾": 3712, "徳島": 3713, "コード": 3714, "スパ@@": 3715, "vs": 3716, "身長": 3717, "電力": 3718, "矢": 3719, "パーク": 3720, "!』": 3721, "国鉄": 3722, "プログラム": 3723, "76": 3724, "密": 3725, "ne": 3726, "AA@@": 3727, "軸": 3728, "articles": 3729, "冠": 3730, "1947": 3731, "ies": 3732, "標@@": 3733, "York": 3734, "分離": 3735, "減@@": 3736, "置": 3737, "示し": 3738, "東海": 3739, "現役": 3740, "Har@@": 3741, "交換": 3742, "病@@": 3743, "鏡": 3744, "ati@@": 3745, "vol": 3746, "1957": 3747, "エンディング": 3748, "全員": 3749, "宮城": 3750, "ain": 3751, "一時": 3752, "孝@@": 3753, "トラック": 3754, "川崎": 3755, "改革": 3756, "PMID": 3757, "ci@@": 3758, "使う": 3759, "喜": 3760, "柳": 3761, "印": 3762, "創@@": 3763, "投手": 3764, "He@@": 3765, "継承": 3766, "限り": 3767, "忠": 3768, "長い": 3769, "ニング": 3770, "接続": 3771, "低": 3772, "接@@": 3773, "昇格": 3774, "比": 3775, "Japan": 3776, "74": 3777, "ings": 3778, "連絡": 3779, "阪神": 3780, "参戦": 3781, "с@@": 3782, "きっかけ": 3783, "太陽": 3784, "オランダ": 3785, "ぷ@@": 3786, "インターネット": 3787, "自動": 3788, "オーストラリア": 3789, "ウェイ": 3790, "らしい": 3791, "治療": 3792, "ess": 3793, "ください": 3794, "イズ": 3795, "源@@": 3796, "ころ": 3797, "負@@": 3798, "相当": 3799, "禁止": 3800, "浜@@": 3801, "cl@@": 3802, "世代": 3803, "僕": 3804, "済": 3805, "柳@@": 3806, "sch@@": 3807, "チャー@@": 3808, "倍": 3809, "共通": 3810, "ネー@@": 3811, "母親": 3812, "シン": 3813, "保存": 3814, "au": 3815, "発言": 3816, "航": 3817, "Col@@": 3818, "殺害": 3819, "к@@": 3820, "優": 3821, "維持": 3822, "最": 3823, "茶": 3824, "つき": 3825, "見せ": 3826, "鎮@@": 3827, "描い": 3828, "ドー@@": 3829, "境": 3830, "詞": 3831, "大字": 3832, "向": 3833, "長官": 3834, "訓練": 3835, "リアル": 3836, "低@@": 3837, "健康": 3838, "OS": 3839, "校舎": 3840, "ur": 3841, "プレイヤー": 3842, "ents": 3843, "容": 3844, "察": 3845, "週間": 3846, "がっ": 3847, "わる": 3848, "カン": 3849, "行く": 3850, "!」": 3851, "願": 3852, "te@@": 3853, "再開": 3854, "JAPAN": 3855, "福井": 3856, "闘": 3857, "議": 3858, "東宝": 3859, "意識": 3860, "ジュ": 3861, "継続": 3862, "養": 3863, "頼@@": 3864, "渋谷": 3865, "ps": 3866, "急": 3867, "ach@@": 3868, "ip@@": 3869, "割@@": 3870, "脱@@": 3871, "ial": 3872, "書か": 3873, "ネットワーク": 3874, "カリ@@": 3875, "90@@": 3876, "開通": 3877, "結": 3878, "没": 3879, "チャー": 3880, "セル": 3881, "貨物": 3882, "IR@@": 3883, "嶋": 3884, "MC": 3885, "カバー": 3886, "静@@": 3887, "逮捕": 3888, "華@@": 3889, "^{": 3890, "安定": 3891, "ウイルス": 3892, "復@@": 3893, "《": 3894, "初回": 3895, "番@@": 3896, "グランプリ": 3897, "延": 3898, "EN": 3899, "おら": 3900, "記者": 3901, "46@@": 3902, "盛": 3903, "姉": 3904, "ボル@@": 3905, "est@@": 3906, "FI@@": 3907, "平和": 3908, "魂": 3909, "ローズ": 3910, "就@@": 3911, "タレント": 3912, "込む": 3913, "1940": 3914, "商": 3915, "シル@@": 3916, "吾": 3917, "秘密": 3918, "un": 3919, "格@@": 3920, "善": 3921, "焼@@": 3922, "少ない": 3923, "底": 3924, "首都": 3925, "ian@@": 3926, "会場": 3927, "ro": 3928, "裕": 3929, "定義": 3930, "友人": 3931, "History": 3932, "番目": 3933, "il": 3934, "任@@": 3935, "競@@": 3936, "業@@": 3937, "io": 3938, "》": 3939, "いわ": 3940, "丁": 3941, "魔@@": 3942, "地下": 3943, "MI@@": 3944, "続く": 3945, "誘@@": 3946, "大陸": 3947, "ティー@@": 3948, "画@@": 3949, "ュー": 3950, "セー@@": 3951, "使@@": 3952, "1941": 3953, "裁": 3954, "隠@@": 3955, "str@@": 3956, "ish@@": 3957, "らし": 3958, "略": 3959, "国土": 3960, "観測": 3961, "ire": 3962, "中学": 3963, "皇帝": 3964, "作っ": 3965, "國": 3966, "池田": 3967, "アナ": 3968, "ップ@@": 3969, "物理": 3970, "集め": 3971, "ツイート": 3972, "同盟": 3973, "ュ@@": 3974, "トラン@@": 3975, "up": 3976, "Ab@@": 3977, "新型": 3978, "たる": 3979, "ション@@": 3980, "単位": 3981, "欧州": 3982, "デン": 3983, "アレ@@": 3984, "東京大学": 3985, ")（": 3986, "青森": 3987, "藤原": 3988, "タン@@": 3989, "1948": 3990, "ジャ": 3991, "本来": 3992, "綱": 3993, "反応": 3994, "メン": 3995, "ヴォ@@": 3996, "三重": 3997, "康": 3998, "バル": 3999, "耐@@": 4000, "徒歩": 4001, "同日": 4002, "カラ@@": 4003, "貢献": 4004, "折": 4005, "ゅう@@": 4006, "操作": 4007, "建@@": 4008, "生命": 4009, "バン": 4010, "人生": 4011, "～@@": 4012, "替え": 4013, "ance": 4014, "感じ": 4015, "広く": 4016, "証": 4017, "西部": 4018, "オール": 4019, "本名": 4020, "謎": 4021, "要素": 4022, "1949": 4023, "策": 4024, "山形": 4025, "188@@": 4026, "テル@@": 4027, "医学": 4028, "ase": 4029, "向上": 4030, "町立": 4031, "制定": 4032, "使い": 4033, "und": 4034, "ain@@": 4035, "sion": 4036, "観@@": 4037, "Mon@@": 4038, "晴@@": 4039, "至る": 4040, "プレー": 4041, "In": 4042, "筋": 4043, "わけ": 4044, "舞": 4045, "深夜": 4046, "除@@": 4047, "プロデュース": 4048, "あれ": 4049, "厳@@": 4050, "命令": 4051, "巨@@": 4052, "帳": 4053, "メル@@": 4054, "土曜": 4055, "置か": 4056, "年齢": 4057, "性@@": 4058, "情@@": 4059, "視聴": 4060, "be@@": 4061, "方@@": 4062, "鶴": 4063, "ect@@": 4064, "網": 4065, "付@@": 4066, "荘": 4067, "創立": 4068, "人員": 4069, "レッド": 4070, "up@@": 4071, "伊": 4072, "月刊": 4073, "奏": 4074, "チン": 4075, "組@@": 4076, "非@@": 4077, "和田": 4078, "US": 4079, "危険": 4080, "1944": 4081, "1953": 4082, "アカデミー": 4083, "単独": 4084, "辞@@": 4085, "予@@": 4086, "Pl@@": 4087, "ロボット": 4088, "奥": 4089, "星@@": 4090, "食品": 4091, "思想": 4092, "少@@": 4093, "青年": 4094, "マク@@": 4095, "リオ": 4096, "役割": 4097, "キャスト": 4098, "特集": 4099, "乱@@": 4100, "よし": 4101, "70@@": 4102, "エリ@@": 4103, "マガジン": 4104, "々@@": 4105, "UT@@": 4106, "me": 4107, "知っ": 4108, "緑": 4109, "1943": 4110, "峰": 4111, "Gu@@": 4112, "ルート": 4113, "納": 4114, "ty": 4115, "思い": 4116, "anc@@": 4117, "慶": 4118, "打": 4119, "Fran@@": 4120, "AR": 4121, "曲@@": 4122, "自体": 4123, "併@@": 4124, "バンク": 4125, "もっ": 4126, "エレ@@": 4127, "he@@": 4128, "医師": 4129, "79": 4130, "福祉": 4131, "1952": 4132, "くん": 4133, "床": 4134, "ホル@@": 4135, "進め": 4136, "仲@@": 4137, "フォード": 4138, "段階": 4139, "範囲": 4140, "」@@": 4141, "ファー": 4142, "思っ": 4143, "やか": 4144, "憲法": 4145, "機体": 4146, "亀@@": 4147, "じる": 4148, "ファイル": 4149, "票": 4150, "資格": 4151, "で@@": 4152, "レー": 4153, "判断": 4154, "あまり": 4155, "ザー@@": 4156, "史@@": 4157, "移行": 4158, "制@@": 4159, "騎士": 4160, "ion": 4161, "湯@@": 4162, "当選": 4163, "盗@@": 4164, "記憶": 4165, "テイ@@": 4166, "録音": 4167, "ra": 4168, "ym@@": 4169, "自己": 4170, "主題歌": 4171, "塁": 4172, "カメラ": 4173, "ペル@@": 4174, "現れ": 4175, "ビジネス": 4176, "ess@@": 4177, "かなり": 4178, "BA": 4179, "切り@@": 4180, "コンピュータ": 4181, "ポジション": 4182, "コミ@@": 4183, "聴@@": 4184, "くれ": 4185, "年鑑": 4186, "遺産": 4187, "筆": 4188, "昭": 4189, "ics": 4190, "グル@@": 4191, "室@@": 4192, "性能": 4193, "自治体": 4194, "怪@@": 4195, "ポ": 4196, "パート": 4197, "じゃ": 4198, "+@@": 4199, "オス": 4200, "勢力": 4201, "毎年": 4202, "純": 4203, "ジョージ": 4204, "延@@": 4205, "脚": 4206, "排@@": 4207, "ゴール": 4208, "邦@@": 4209, "審査": 4210, "協議": 4211, "Bro@@": 4212, "沢@@": 4213, "man@@": 4214, "然": 4215, "兵衛": 4216, "西日本": 4217, "周囲": 4218, "一緒": 4219, "読売新聞": 4220, "Or@@": 4221, "かる": 4222, "クター": 4223, "専攻": 4224, "廃": 4225, "提案": 4226, "DO@@": 4227, "通過": 4228, "木村": 4229, "独@@": 4230, "Com@@": 4231, "ss@@": 4232, "活@@": 4233, "織": 4234, "減": 4235, "トリー": 4236, "開幕": 4237, "Fl@@": 4238, "回転": 4239, "張@@": 4240, "倉@@": 4241, "way": 4242, "中国語": 4243, "ust@@": 4244, "かん": 4245, "街道": 4246, "イス": 4247, "1951": 4248, "哲学": 4249, "内部": 4250, "オープニング": 4251, "イル": 4252, "鳴@@": 4253, "Journal": 4254, "戦車": 4255, "橋@@": 4256, "ace": 4257, "犯罪": 4258, "駅前": 4259, "アフリカ": 4260, "常": 4261, "たく": 4262, "振興": 4263, "領@@": 4264, "ソ連": 4265, "人事": 4266, "工学": 4267, "プリン@@": 4268, "孝": 4269, "油": 4270, "\\@@": 4271, "ゲ": 4272, "香港": 4273, "布@@": 4274, "執@@": 4275, "客@@": 4276, "剛": 4277, "実行": 4278, "電鉄": 4279, "ネイ@@": 4280, "堀": 4281, "MA": 4282, "甲": 4283, "Ver@@": 4284, "キン@@": 4285, "'@@": 4286, "日記": 4287, "Di@@": 4288, "劇団": 4289, "ャ@@": 4290, "в@@": 4291, "バトル": 4292, "毎日新聞": 4293, "増": 4294, "go": 4295, "古墳": 4296, "ind@@": 4297, "艇": 4298, "繰り@@": 4299, "ae": 4300, "John": 4301, "開": 4302, "<": 4303, "子会社": 4304, "世帯": 4305, "シュ": 4306, "進行": 4307, "使": 4308, "前後": 4309, "後期": 4310, "ムー@@": 4311, "吹@@": 4312, "亜@@": 4313, "ヶ月": 4314, "特急": 4315, "ボーカル": 4316, "ジャー@@": 4317, "150": 4318, "純@@": 4319, "悲@@": 4320, "Inter@@": 4321, "べる": 4322, "Tra@@": 4323, "呼び@@": 4324, "準@@": 4325, "秀": 4326, "out": 4327, "用法": 4328, "宿@@": 4329, "灯": 4330, "スー@@": 4331, "丹@@": 4332, "度目": 4333, "減少": 4334, "それら": 4335, "集英社": 4336, "ポーランド": 4337, "建て": 4338, "Web": 4339, "臨時": 4340, "Ac@@": 4341, "Sc@@": 4342, "輝@@": 4343, "1942": 4344, "建造": 4345, "応": 4346, "難": 4347, "芸能": 4348, "推@@": 4349, "立ち@@": 4350, "＞": 4351, "速@@": 4352, "als": 4353, "しょ": 4354, "諸@@": 4355, "ION": 4356, "因@@": 4357, "男女": 4358, "ins": 4359, "検討": 4360, "立つ": 4361, "わっ": 4362, "計算": 4363, "ミン": 4364, "消費": 4365, "座@@": 4366, "サポート": 4367, "ron@@": 4368, "善@@": 4369, "ED": 4370, "紀元前": 4371, "球@@": 4372, "出る": 4373, "分析": 4374, "要求": 4375, "ファン@@": 4376, "スタジアム": 4377, "ヴァン@@": 4378, "自": 4379, "姉妹": 4380, "ブルー": 4381, "ut": 4382, "oun@@": 4383, "今日": 4384, "営@@": 4385, "良い": 4386, "遺跡": 4387, "麗": 4388, "定め": 4389, "小さな": 4390, "球団": 4391, "グ・@@": 4392, "駆逐": 4393, "再生": 4394, "コロナ": 4395, "スト・@@": 4396, "★": 4397, "仲": 4398, "少": 4399, "サイズ": 4400, "朝刊": 4401, "逃@@": 4402, "mo@@": 4403, "ジャン@@": 4404, "設": 4405, "乳@@": 4406, "ゆう": 4407, "板@@": 4408, "被@@": 4409, "呂": 4410, "比較": 4411, "％": 4412, "必@@": 4413, "桃@@": 4414, "ドラゴン": 4415, "機器": 4416, "アーティスト": 4417, "por@@": 4418, "住": 4419, "背@@": 4420, "メジャー": 4421, "組み": 4422, "ations": 4423, "眼": 4424, "Bar@@": 4425, "練習": 4426, "横": 4427, "かも": 4428, "）-": 4429, "群馬": 4430, "っと": 4431, "トーク": 4432, "得る": 4433, "а": 4434, "健": 4435, "ica": 4436, "休止": 4437, "諸島": 4438, "ヴァー@@": 4439, "ブラン@@": 4440, "ear@@": 4441, "ツィ@@": 4442, "アート": 4443, "ina": 4444, "定期": 4445, "セル@@": 4446, "昌@@": 4447, "態": 4448, "レイ": 4449, "gen@@": 4450, "近年": 4451, "読@@": 4452, "桜@@": 4453, "書い": 4454, "あなた": 4455, "*": 4456, "Ste@@": 4457, "/@@": 4458, "セン": 4459, "らす": 4460, "弁護士": 4461, "ill": 4462, "持@@": 4463, "ブレイ@@": 4464, "フィールド": 4465, "兵器": 4466, "BE@@": 4467, "消滅": 4468, "1930": 4469, "微@@": 4470, "連隊": 4471, "動き": 4472, "司会": 4473, "金曜": 4474, "Res@@": 4475, "分割": 4476, "技@@": 4477, "ack@@": 4478, "種@@": 4479, "ME": 4480, "ru@@": 4481, "Bl@@": 4482, "勤務": 4483, "VE": 4484, "〔": 4485, "min@@": 4486, "結ぶ": 4487, "ジュニア": 4488, "本塁打": 4489, "全く": 4490, "財@@": 4491, "哉": 4492, "35@@": 4493, "刻": 4494, "1939": 4495, "始まる": 4496, "鹿": 4497, "栃木": 4498, "注目": 4499, "sk@@": 4500, "エク@@": 4501, "ゆ": 4502, "ズム": 4503, "イオン": 4504, "しん": 4505, "歴代": 4506, "栗@@": 4507, "伯": 4508, "アフ@@": 4509, "もしくは": 4510, "依頼": 4511, "店@@": 4512, "転": 4513, "指名": 4514, "〕": 4515, "ぱ@@": 4516, "植@@": 4517, "ホーム@@": 4518, "スクール": 4519, "棟": 4520, "可": 4521, "職員": 4522, "アナ@@": 4523, "菌": 4524, "長男": 4525, "ris@@": 4526, "アウ@@": 4527, "注": 4528, "散@@": 4529, "冒険": 4530, "殺@@": 4531, "味@@": 4532, "op": 4533, "0000@@": 4534, "im": 4535, "執筆": 4536, "ヨー@@": 4537, "110@@": 4538, "公共": 4539, "ite": 4540, "ストラ@@": 4541, "ッグ": 4542, "訪れ": 4543, "..": 4544, "徳川": 4545, "小学館": 4546, "キャン@@": 4547, "国勢調査": 4548, "語句": 4549, "臨@@": 4550, "ッカー": 4551, "ムス": 4552, "Co@@": 4553, "棒": 4554, "tics": 4555, "何@@": 4556, "設備": 4557, "惑星": 4558, "興@@": 4559, "切": 4560, "斗": 4561, "ロード": 4562, "tions": 4563, "und@@": 4564, "慶@@": 4565, "他@@": 4566, "ant": 4567, "没@@": 4568, "弁@@": 4569, "人名": 4570, "しまい": 4571, "ist": 4572, "鎌倉": 4573, "岩手": 4574, "コンサート": 4575, "ファー@@": 4576, "向かっ": 4577, "ブラジル": 4578, "出来る": 4579, "秘@@": 4580, "ルズ": 4581, "北海道@@": 4582, "芳@@": 4583, "伴う": 4584, "岳": 4585, "生まれる": 4586, "儀": 4587, "佐々木": 4588, "ソロ": 4589, "けん": 4590, "命@@": 4591, "ブロック": 4592, "浩": 4593, "前作": 4594, "地下鉄": 4595, "砂@@": 4596, "フロ@@": 4597, "幼@@": 4598, "アス@@": 4599, "ビン": 4600, "弥@@": 4601, "ウル@@": 4602, "後述": 4603, "官報": 4604, "改良": 4605, "出力": 4606, "起用": 4607, "プロダクション": 4608, "残り": 4609, "ょ@@": 4610, "特": 4611, "趣味": 4612, "アニメーション": 4613, "em": 4614, "あい": 4615, "スターズ": 4616, "д@@": 4617, "半島": 4618, "ゲー@@": 4619, "小型": 4620, "樹@@": 4621, "Ro@@": 4622, "咲": 4623, "ated": 4624, "茂@@": 4625, "勇@@": 4626, "職能": 4627, "権@@": 4628, "ルール": 4629, "Man@@": 4630, "敏@@": 4631, "意見": 4632, "1946": 4633, "導@@": 4634, "到着": 4635, "デー@@": 4636, "洗@@": 4637, "編纂": 4638, "か月": 4639, "せい": 4640, "論文": 4641, "［": 4642, "ポール": 4643, "判定": 4644, "Gre@@": 4645, "アー": 4646, "取る": 4647, "管轄": 4648, "始める": 4649, "無料": 4650, "朝日": 4651, "進学": 4652, "処分": 4653, "輝": 4654, "ジャン": 4655, "講師": 4656, "河川": 4657, "洲": 4658, "ゆき": 4659, "備え": 4660, "戦略": 4661, "ma": 4662, "ョ@@": 4663, "接": 4664, "統": 4665, "指す": 4666, "ion@@": 4667, "庭": 4668, "免許": 4669, "止め": 4670, "問": 4671, "奪": 4672, "Fre@@": 4673, "潜@@": 4674, "ぜ": 4675, "入口": 4676, "充@@": 4677, "イングランド": 4678, "リュ@@": 4679, "自治": 4680, "立っ": 4681, "Cor@@": 4682, "荷": 4683, "狭@@": 4684, "戻っ": 4685, "リズム": 4686, "MLB": 4687, "鬼@@": 4688, "買@@": 4689, "ゴルフ": 4690, "乃": 4691, "寺院": 4692, "金融": 4693, "抱@@": 4694, "太平洋": 4695, "000@@": 4696, "MS": 4697, "グリーン": 4698, "キャラ": 4699, "既に": 4700, "師団": 4701, "以@@": 4702, "理解": 4703, "書籍": 4704, "終わっ": 4705, "TOKYO": 4706, "築@@": 4707, "会館": 4708, "ジャンプ": 4709, "浦@@": 4710, "執行": 4711, "}}}": 4712, "評論": 4713, "幕府": 4714, "窓": 4715, "限": 4716, "得意": 4717, "創業": 4718, "太田": 4719, "知事": 4720, "クライ@@": 4721, "給@@": 4722, "ich@@": 4723, "すれ": 4724, "］": 4725, "民主党": 4726, "シャル@@": 4727, "隣接": 4728, "PA": 4729, "ネス": 4730, "等@@": 4731, "目標": 4732, "払@@": 4733, "ニュー": 4734, "ュー@@": 4735, "ジン": 4736, "イラスト": 4737, "モンスター": 4738, "こそ": 4739, "帰国": 4740, "全集": 4741, "RA@@": 4742, "異なり": 4743, "民間": 4744, "毎週": 4745, "まち": 4746, "衛": 4747, "回復": 4748, "埋@@": 4749, "物質": 4750, "対抗": 4751, "q@@": 4752, "検査": 4753, "用いる": 4754, "賢@@": 4755, "Her@@": 4756, "！”.": 4757, "ティー": 4758, "キン": 4759, "解放": 4760, "演じ": 4761, "ポート": 4762, "リーダー": 4763, "ユダヤ": 4764, "歴": 4765, "中島": 4766, "穴": 4767, "氏@@": 4768, "後継": 4769, "心理": 4770, "らく": 4771, "審": 4772, "向かう": 4773, "防御": 4774, "共に": 4775, "プロレス": 4776, "桑@@": 4777, "如@@": 4778, "絵@@": 4779, "命名": 4780, "創": 4781, "裁判": 4782, "更に": 4783, "湯": 4784, "サラ@@": 4785, "120": 4786, "共著": 4787, "四国": 4788, "踏@@": 4789, "県道": 4790, "日間": 4791, "エピソード": 4792, "大量": 4793, "最優秀": 4794, "National": 4795, "つける": 4796, "教室": 4797, "民主": 4798, "トンネル": 4799, "日曜": 4800, "Gen@@": 4801, "東部": 4802, "在籍": 4803, "始": 4804, "広告": 4805, "オブ": 4806, "カット": 4807, "嵐": 4808, "ウクライナ": 4809, "負け": 4810, "ern": 4811, "ans": 4812, ")」": 4813, "いち": 4814, "テー@@": 4815, "敬": 4816, "我@@": 4817, "ザン@@": 4818, "襲": 4819, "急行": 4820, "view": 4821, "作り": 4822, "翻訳": 4823, "研": 4824, "he": 4825, "シング@@": 4826, "領域": 4827, "ロ・@@": 4828, "ミン@@": 4829, "を通じて": 4830, "知識": 4831, "摩@@": 4832, "柱": 4833, "身体": 4834, "様子": 4835, "ディ・@@": 4836, "Times": 4837, "ISSN": 4838, "ame": 4839, "私@@": 4840, "IS": 4841, "応援": 4842, "レーション": 4843, "パル@@": 4844, "殺し": 4845, "発射": 4846, "ウェイバックマシン": 4847, "ベルト": 4848, "86@@": 4849, "館@@": 4850, "泉@@": 4851, "晶": 4852, "常に": 4853, "片": 4854, "迷@@": 4855, "準備": 4856, "海岸": 4857, "ッキー": 4858, "ile": 4859, "合計": 4860, "ミニ": 4861, "寛@@": 4862, "ブ・@@": 4863, "解決": 4864, "黄": 4865, "800": 4866, "周@@": 4867, "国会": 4868, "直前": 4869, "資金": 4870, "示": 4871, "ずつ": 4872, "中野": 4873, "価格": 4874, "希望": 4875, "岡田": 4876, "税@@": 4877, "普及": 4878, "レーター": 4879, "須": 4880, "労": 4881, "厚@@": 4882, "クロー@@": 4883, "科@@": 4884, "完@@": 4885, "確保": 4886, "血液": 4887, "始まっ": 4888, "沖": 4889, "ミル@@": 4890, "ix": 4891, "実業": 4892, "ックス@@": 4893, "続き": 4894, "しばしば": 4895, "ムズ": 4896, "供給": 4897, "Pol@@": 4898, "ベルク": 4899, "1937": 4900, "渡": 4901, "コミックス": 4902, "大和": 4903, "新書": 4904, "交渉": 4905, "our": 4906, "池@@": 4907, "温@@": 4908, "車体": 4909, "生き@@": 4910, "シュー@@": 4911, "作用": 4912, "OL@@": 4913, "学術": 4914, "中日": 4915, "坊": 4916, "International": 4917, "狙@@": 4918, "ä@@": 4919, "バラ": 4920, "任務": 4921, "調整": 4922, "American": 4923, "ちゃ@@": 4924, "困難": 4925, "-（": 4926, "砂": 4927, "同時": 4928, "enti@@": 4929, "メダル": 4930, "ハイ": 4931, "愛称": 4932, "Ap@@": 4933, "テル": 4934, "和歌山": 4935, "ブルー@@": 4936, "エア@@": 4937, "破": 4938, "九@@": 4939, "自衛隊": 4940, "与@@": 4941, "登板": 4942, "プル": 4943, "金沢": 4944, "MA@@": 4945, "Char@@": 4946, "講@@": 4947, "ゴン": 4948, "ir": 4949, "脇": 4950, "鹿@@": 4951, "溶@@": 4952, "TH@@": 4953, "梅@@": 4954, "be": 4955, "ol": 4956, "覧": 4957, "歌詞": 4958, "容@@": 4959, "大使": 4960, "現場": 4961, "ディレクター": 4962, "対立": 4963, "ブラック": 4964, "射@@": 4965, "迫@@": 4966, "交": 4967, "ブー@@": 4968, "州@@": 4969, "クラ": 4970, "絶": 4971, "ive": 4972, "ley": 4973, "OF": 4974, "クロ": 4975, "訴": 4976, "佳@@": 4977, "プラス": 4978, "rit@@": 4979, "補": 4980, "燃@@": 4981, "基づく": 4982, "写": 4983, "置く": 4984, "学習": 4985, "ys@@": 4986, "賀@@": 4987, "Fin@@": 4988, "前述": 4989, "nd": 4990, "判決": 4991, "王子": 4992, "封@@": 4993, "]。": 4994, "ディー": 4995, "克@@": 4996, "危機": 4997, "スキ@@": 4998, "考@@": 4999, "セレ@@": 5000, "作る": 5001, "押@@": 5002, "戦国": 5003, "県内": 5004, "OP": 5005, "づけ": 5006, "Pre@@": 5007, "哲@@": 5008, "銀@@": 5009, "リアン": 5010, "階級": 5011, "ハル@@": 5012, "株": 5013, "新幹線": 5014, "散": 5015, "体重": 5016, "ハッ@@": 5017, "Ed@@": 5018, "助け": 5019, "吸収": 5020, "＜": 5021, "クリー@@": 5022, "酒@@": 5023, "がり": 5024, "ダイヤ": 5025, "比べ": 5026, "協@@": 5027, "オール@@": 5028, "画面": 5029, "与える": 5030, "ID": 5031, "cont@@": 5032, "エン": 5033, "幼稚園": 5034, "テク@@": 5035, "期待": 5036, "上位": 5037, "稿": 5038, "信号": 5039, "適用": 5040, "昭@@": 5041, "ただ": 5042, "演劇": 5043, "ヤマ@@": 5044, "体験": 5045, "ティ・@@": 5046, "ボス": 5047, "中部": 5048, "寿@@": 5049, "1936": 5050, "佐賀": 5051, "ton": 5052, "応じ": 5053, "籍": 5054, "サイド": 5055, "23@@": 5056, "セイ@@": 5057, "祭@@": 5058, "able": 5059, "婦": 5060, "照@@": 5061, "消防": 5062, "点@@": 5063, "ビル@@": 5064, "任命": 5065, "収": 5066, "麻": 5067, "ake": 5068, "表明": 5069, "団地": 5070, "ベイ@@": 5071, "IA": 5072, "アン・@@": 5073, "こう@@": 5074, "一定": 5075, "コル@@": 5076, "bo@@": 5077, "蔵@@": 5078, "だい": 5079, "メディ@@": 5080, "しみ": 5081, "吸@@": 5082, "tic@@": 5083, "豪": 5084, "パス": 5085, "禁@@": 5086, "中山": 5087, "エア": 5088, "ous": 5089, "ern@@": 5090, "許可": 5091, "テスト": 5092, "ストン": 5093, "柔道": 5094, "判": 5095, "int@@": 5096, "シアター": 5097, "そこで": 5098, "陰@@": 5099, "立場": 5100, "Love": 5101, "毒": 5102, "出現": 5103, "ダ・@@": 5104, "地図": 5105, "考える": 5106, "緊急": 5107, "やすい": 5108, "陵": 5109, "篠@@": 5110, "加盟": 5111, "El@@": 5112, "マイル": 5113, "百科": 5114, "繋@@": 5115, "GP": 5116, "Official": 5117, "証券": 5118, "ッター": 5119, "oh@@": 5120, "目指し": 5121, "600": 5122, "惑": 5123, "虎": 5124, "画家": 5125, "ユニ@@": 5126, "割": 5127, "教え": 5128, "ター・@@": 5129, "闇": 5130, "マスター": 5131, "レス@@": 5132, "起き": 5133, "スリ@@": 5134, "ber@@": 5135, "中世": 5136, "クロス": 5137, "むら": 5138, "巨人": 5139, "背景": 5140, "空軍": 5141, "ドル@@": 5142, "開校": 5143, "att@@": 5144, "Live": 5145, "クイズ": 5146, "育成": 5147, "カール": 5148, "金属": 5149, "旨": 5150, "箱": 5151, "』@@": 5152, "大阪@@": 5153, "ポル@@": 5154, "スウェーデン": 5155, "山崎": 5156, "AD": 5157, "ood": 5158, "宅": 5159, "竣工": 5160, "撤退": 5161, "管@@": 5162, "規則": 5163, "いわゆる": 5164, "ner": 5165, "OK@@": 5166, "語る": 5167, "ジェイ@@": 5168, "シア@@": 5169, "附属": 5170, "ays": 5171, "収め": 5172, "双@@": 5173, "天使": 5174, "潜水": 5175, "富": 5176, "引": 5177, "ペ": 5178, "鳥取": 5179, "俺": 5180, "Min@@": 5181, "昌": 5182, "先発": 5183, "規制": 5184, "リック": 5185, "観客": 5186, "rec@@": 5187, "mu": 5188, "ちゃ": 5189, "翔": 5190, "どの": 5191, "ミサイル": 5192, "ME@@": 5193, "模様": 5194, "作画": 5195, "マス": 5196, "王者": 5197, "商店": 5198, "オリコン": 5199, "ポン@@": 5200, "地理": 5201, "碑": 5202, "美子": 5203, "判明": 5204, "だろ": 5205, "兼@@": 5206, "ht@@": 5207, "生き": 5208, "笑": 5209, "方針": 5210, "襲@@": 5211, "101": 5212, "敬@@": 5213, "画像": 5214, "しま": 5215, "貸@@": 5216, "集合": 5217, "1920": 5218, "刺@@": 5219, "弱@@": 5220, "ish": 5221, "duc@@": 5222, "アクション": 5223, "タ・@@": 5224, "ミー@@": 5225, "入団": 5226, "記@@": 5227, "権利": 5228, "滅": 5229, "ケン": 5230, "ORICON": 5231, "譲@@": 5232, "ッシュ@@": 5233, "Per@@": 5234, "買収": 5235, "ement": 5236, "外交": 5237, "ステーション": 5238, "英国": 5239, "男@@": 5240, "フリー@@": 5241, "功": 5242, "高知": 5243, "ors": 5244, "富士": 5245, "コメント": 5246, "ガイド": 5247, "参議院": 5248, "雑@@": 5249, "ome": 5250, "1938": 5251, "計@@": 5252, "オーストリア": 5253, "ワード": 5254, "掛@@": 5255, "戦艦": 5256, "ma@@": 5257, "傾向": 5258, "ドーム": 5259, "本格": 5260, "海上": 5261, "ö@@": 5262, "合格": 5263, "入れる": 5264, "IMDb": 5265, "Met@@": 5266, "ックス・@@": 5267, "SC": 5268, "eng@@": 5269, "祐": 5270, "前田": 5271, "上げる": 5272, "述": 5273, "提出": 5274, "変え": 5275, "衛星": 5276, "みんな": 5277, "付属": 5278, "ダウン": 5279, "闘@@": 5280, "村上": 5281, "ティブ": 5282, "認識": 5283, "バリ@@": 5284, "元々": 5285, "コール": 5286, "ジン@@": 5287, "閉鎖": 5288, "操@@": 5289, "are": 5290, "停車": 5291, "当たり": 5292, "ほ": 5293, "防": 5294, "とり": 5295, "阪": 5296, "仮面ライダー": 5297, "橋本": 5298, "低い": 5299, "ばかり": 5300, "神経": 5301, "ピー": 5302, "書き": 5303, "務@@": 5304, "ポリ@@": 5305, "frac": 5306, "コト": 5307, "広場": 5308, "ロン@@": 5309, "音声": 5310, "ヴァ": 5311, "体育": 5312, "子ども": 5313, "飛び@@": 5314, "青春": 5315, "前年": 5316, "悪魔": 5317, "所在": 5318, "改善": 5319, "EC@@": 5320, "London": 5321, "患者": 5322, "磁@@": 5323, "スペース": 5324, "まとめ": 5325, "投資": 5326, "剣@@": 5327, "フェル@@": 5328, "崩壊": 5329, "art@@": 5330, "チャート": 5331, "AF@@": 5332, "短期大学": 5333, "EX@@": 5334, "）”.": 5335, "威": 5336, "Wil@@": 5337, "仮面": 5338, "国会図書館": 5339, "貞": 5340, "1935": 5341, "ふ": 5342, "妃": 5343, "句": 5344, "La@@": 5345, "アップ@@": 5346, "mon@@": 5347, "露": 5348, "enn@@": 5349, "ai@@": 5350, "処@@": 5351, "1934": 5352, "帝@@": 5353, "振り@@": 5354, "ぞ@@": 5355, "ファ": 5356, "マグ@@": 5357, "ゅ@@": 5358, "弥": 5359, "沙": 5360, "wh@@": 5361, "聞@@": 5362, "討@@": 5363, "３": 5364, "思い@@": 5365, "ング・@@": 5366, "des": 5367, "雷": 5368, "ナル": 5369, "固定": 5370, "携帯": 5371, "毎日": 5372, "わずか": 5373, "入社": 5374, "備": 5375, "看護": 5376, "属する": 5377, "牛": 5378, "瀬@@": 5379, "若": 5380, "免@@": 5381, "ana": 5382, "シャー": 5383, "食べ": 5384, "組み@@": 5385, "AC": 5386, "上野": 5387, "武田": 5388, "新田": 5389, "報@@": 5390, "ゃ@@": 5391, "募集": 5392, "嘉": 5393, "給": 5394, "ゼロ": 5395, "爆発": 5396, "黄@@": 5397, "ord@@": 5398, "選抜": 5399, "分布": 5400, "‐": 5401, "ティア": 5402, "概要": 5403, "尚@@": 5404, "数学": 5405, "宣@@": 5406, "Instagram": 5407, "個@@": 5408, "TS": 5409, "ミュ@@": 5410, "呼ん": 5411, "年版": 5412, "ミス": 5413, "贈@@": 5414, "話題": 5415, "紅": 5416, "google": 5417, "ディング": 5418, "幕@@": 5419, "メキシコ": 5420, "ヤー": 5421, "バイ": 5422, "ヒュー@@": 5423, "尻": 5424, "ft": 5425, "付い": 5426, "ラル": 5427, "見える": 5428, "リュー@@": 5429, "月曜": 5430, "芸人": 5431, "かさ": 5432, "便@@": 5433, "悟": 5434, "スタン": 5435, "最新": 5436, "息": 5437, "蘭": 5438, "守る": 5439, "どこ": 5440, "違@@": 5441, "ker": 5442, "ke": 5443, "公立": 5444, "中央@@": 5445, "ガイ@@": 5446, "言@@": 5447, "尊@@": 5448, "藩主": 5449, "央": 5450, "やっ": 5451, "書き@@": 5452, "倒": 5453, "You": 5454, "ネタ": 5455, "染": 5456, "ぼ": 5457, "あの": 5458, "ショップ": 5459, "尚": 5460, "介@@": 5461, "ond@@": 5462, "ケース": 5463, "ニー・@@": 5464, "拳": 5465, "Wh@@": 5466, "平日": 5467, "資": 5468, "緒": 5469, "呉": 5470, "24@@": 5471, "叢書": 5472, "監@@": 5473, "テニス": 5474, "日本経済新聞": 5475, "スカ": 5476, "山梨": 5477, "株式": 5478, "指": 5479, "北京": 5480, "抗@@": 5481, "区@@": 5482, "ェ@@": 5483, "edi@@": 5484, "暮らし": 5485, "災害": 5486, "推定": 5487, "前半": 5488, "滝": 5489, "広報": 5490, "上映": 5491, "人民": 5492, "祝@@": 5493, "取材": 5494, "燃料": 5495, "優秀": 5496, "弟子": 5497, "ポルトガル": 5498, "輔": 5499, "トム": 5500, "濃@@": 5501, "ere": 5502, "滅@@": 5503, "続ける": 5504, "遅@@": 5505, "泰@@": 5506, "のり": 5507, "両親": 5508, "注意": 5509, "ゅう": 5510, "泰": 5511, "ONE": 5512, "牛@@": 5513, "婚": 5514, "形状": 5515, "松竹": 5516, "ean": 5517, "1933": 5518, "キリスト": 5519, "ワールドカップ": 5520, "白い": 5521, "送@@": 5522, "カリフォルニア": 5523, "一族": 5524, "乗り": 5525, "連れ": 5526, "占領": 5527, "否定": 5528, "у@@": 5529, "各種": 5530, "ビュー@@": 5531, "なん@@": 5532, "資本": 5533, "標": 5534, "ler": 5535, "評": 5536, "亭": 5537, "パワー": 5538, "沈@@": 5539, "杉": 5540, "SF": 5541, "露@@": 5542, "合成": 5543, "マシン": 5544, "シャー@@": 5545, "包@@": 5546, "潮": 5547, "ーム@@": 5548, "rig@@": 5549, "お笑い": 5550, "人類": 5551, "ネーム": 5552, "歩兵": 5553, "1928": 5554, "どちら": 5555, "ung": 5556, "協定": 5557, "所在地": 5558, "tiv@@": 5559, "染@@": 5560, "略称": 5561, "暗@@": 5562, "イト": 5563, "Comp@@": 5564, "アイテム": 5565, "乳": 5566, "カス": 5567, "換@@": 5568, "Gra@@": 5569, "べく": 5570, "1932": 5571, "カタ@@": 5572, "市町村": 5573, "ベトナム": 5574, "ワー": 5575, "col@@": 5576, "収容": 5577, "腹": 5578, "ラグビー": 5579, "』（": 5580, "п@@": 5581, "ail@@": 5582, "考": 5583, "襲撃": 5584, "略@@": 5585, "証明": 5586, "Dis@@": 5587, "コミュニティ": 5588, "自転車": 5589, "dis@@": 5590, "iss@@": 5591, "上昇": 5592, "回り": 5593, "葛@@": 5594, "相互": 5595, "庫": 5596, "ack": 5597, "将棋": 5598, "ジア": 5599, "承認": 5600, "CA": 5601, "ぞ": 5602, "武装": 5603, "フィルム": 5604, "大橋": 5605, "uk": 5606, "サル@@": 5607, "プール": 5608, "м@@": 5609, "ard@@": 5610, "ニッ@@": 5611, "ガール": 5612, "強制": 5613, "地位": 5614, "かける": 5615, "セント": 5616, "アダ@@": 5617, "旬": 5618, "牧@@": 5619, "連携": 5620, "魚@@": 5621, "前身": 5622, "緑@@": 5623, "現地": 5624, "IT": 5625, "投": 5626, "愛媛": 5627, "温": 5628, "チャンピオン": 5629, "べ@@": 5630, "ワイド": 5631, "場面": 5632, "墓": 5633, "アイルランド": 5634, "少し": 5635, "コム": 5636, "札": 5637, "マル": 5638, "ほう": 5639, "霊@@": 5640, "ウィリアム": 5641, "事情": 5642, "om": 5643, "菊@@": 5644, "Mc@@": 5645, "á@@": 5646, "HP": 5647, "オフ": 5648, "110": 5649, "駆@@": 5650, "Mor@@": 5651, "GO": 5652, "比較的": 5653, "劉": 5654, "滋賀": 5655, "アウト": 5656, "知る": 5657, "見え": 5658, "ホ": 5659, "卿": 5660, "Ge@@": 5661, "提携": 5662, "始まり": 5663, "ぴ@@": 5664, "梨": 5665, "こちら": 5666, "｢": 5667, "tra@@": 5668, "負傷": 5669, "締結": 5670, "英雄": 5671, "分の": 5672, "祭り": 5673, "却": 5674, "クル": 5675, "有効": 5676, "app@@": 5677, "鋼": 5678, "ection": 5679, "ヴェル@@": 5680, "除": 5681, "貿易": 5682, "AI": 5683, "俊": 5684, "シップ": 5685, "拡張": 5686, "持た": 5687, "提@@": 5688, "ガル@@": 5689, "触@@": 5690, "０": 5691, "キャスター": 5692, "完了": 5693, "ごろ": 5694, "単": 5695, "チャン": 5696, "リティ": 5697, "銃@@": 5698, "é": 5699, "静": 5700, "呼称": 5701, "エス@@": 5702, "笑@@": 5703, "変身": 5704, "大きい": 5705, "α": 5706, "ディア": 5707, "神話": 5708, "皇": 5709, "滑@@": 5710, "大幅": 5711, "さくら": 5712, "Pe@@": 5713, "“@@": 5714, "祐@@": 5715, "深": 5716, "IL@@": 5717, "amp@@": 5718, "Is@@": 5719, "原則": 5720, "WEB": 5721, "HE@@": 5722, "組ん": 5723, "VS": 5724, "印刷": 5725, "ensi@@": 5726, "求める": 5727, "社員": 5728, "ang": 5729, "松山": 5730, "ニン@@": 5731, "ニコ@@": 5732, "人形": 5733, "嫌@@": 5734, "表す": 5735, "1929": 5736, "メール": 5737, "不足": 5738, "だが": 5739, "ヒーロー": 5740, "院@@": 5741, "環": 5742, "ょう": 5743, "漁@@": 5744, "ウス・@@": 5745, "冊": 5746, "線@@": 5747, "TE@@": 5748, "サウ@@": 5749, "小川": 5750, "BBC": 5751, "護衛": 5752, "gov": 5753, "届@@": 5754, "Win@@": 5755, "卒": 5756, "読売": 5757, "銀河": 5758, "夕@@": 5759, "生涯": 5760, "省@@": 5761, "識": 5762, "徹": 5763, "兵士": 5764, "フォン": 5765, "アクセス": 5766, "遅れ": 5767, "駒": 5768, "250": 5769, "奉@@": 5770, "スコ": 5771, "1931": 5772, "憲@@": 5773, "ロード@@": 5774, "恋愛": 5775, "山下": 5776, "軍人": 5777, "午後": 5778, "（+": 5779, "尊": 5780, "犯": 5781, "編@@": 5782, "Hol@@": 5783, "KE@@": 5784, "支部": 5785, "機会": 5786, "次元": 5787, "崎@@": 5788, "脈": 5789, "放映": 5790, "仏@@": 5791, "去": 5792, "tive": 5793, "議長": 5794, "町村": 5795, "逆@@": 5796, "シス": 5797, "検索": 5798, "ong@@": 5799, "西洋": 5800, "ya": 5801, "女王": 5802, "Em@@": 5803, "沼@@": 5804, "硬@@": 5805, "上田": 5806, "実は": 5807, "本編": 5808, "DJ": 5809, "概念": 5810, "現象": 5811, "進化": 5812, "ソフトウェア": 5813, "高田": 5814, "ステークス": 5815, "ブス": 5816, "弱": 5817, "its": 5818, "イエ@@": 5819, "決": 5820, "ゥ@@": 5821, "あと": 5822, "いっ@@": 5823, "告示": 5824, "地点": 5825, "幾@@": 5826, "価値": 5827, "勇": 5828, "合流": 5829, "press": 5830, "形@@": 5831, "La": 5832, "至@@": 5833, "ッシ@@": 5834, "失っ": 5835, "して": 5836, "区別": 5837, "bi@@": 5838, "文献": 5839, "...": 5840, "桂": 5841, "十分": 5842, "同士": 5843, "率いる": 5844, "香川": 5845, "重量": 5846, "頼": 5847, "超え": 5848, "怪獣": 5849, "ミュージカル": 5850, "訪問": 5851, "五郎": 5852, "■": 5853, "うた": 5854, "返し": 5855, "塩": 5856, "市役所": 5857, "規格": 5858, "岸@@": 5859, "力@@": 5860, "ツェ@@": 5861, "ハート": 5862, "替@@": 5863, "巣": 5864, "ソウル": 5865, "ドア": 5866, "警備": 5867, "pg": 5868, "石井": 5869, "ミング": 5870, "進ん": 5871, "描写": 5872, "韓": 5873, "自宅": 5874, "易": 5875, "トラ": 5876, "まい": 5877, "無線": 5878, "二つ": 5879, "アシ@@": 5880, "メイト": 5881, "コンビ": 5882, "雪@@": 5883, "事態": 5884, "ナターシャ": 5885, "拒否": 5886, "生放送": 5887, "寛": 5888, "バスケットボール": 5889, "名鑑": 5890, "ek@@": 5891, "結ん": 5892, "幹": 5893, "我": 5894, "イン・@@": 5895, "統治": 5896, "絶対": 5897, "活用": 5898, "佳": 5899, "終点": 5900, "賛": 5901, "FIFA": 5902, "失": 5903, "ボクシング": 5904, "Ag@@": 5905, "The@@": 5906, "夫人": 5907, "往復": 5908, "戦う": 5909, "写@@": 5910, "寄せ": 5911, "Windows": 5912, "改名": 5913, "沙@@": 5914, "恋人": 5915, "講座": 5916, "律": 5917, "yp@@": 5918, "覆@@": 5919, "中川": 5920, "激": 5921, "スロ@@": 5922, "問@@": 5923, "BL@@": 5924, "整@@": 5925, "楽器": 5926, "Wal@@": 5927, "Op@@": 5928, "目指す": 5929, "ヲ": 5930, "デス": 5931, "職業": 5932, "同名": 5933, "ハンド@@": 5934, "休": 5935, "ランク": 5936, "移管": 5937, "係@@": 5938, "旅@@": 5939, "独": 5940, "ジ・@@": 5941, "NA": 5942, "貞@@": 5943, "Facebook": 5944, "結局": 5945, "マッチ": 5946, "NN": 5947, "高度": 5948, "作中": 5949, "ac": 5950, "現実": 5951, "改修": 5952, "添@@": 5953, "fl@@": 5954, "滝@@": 5955, "課@@": 5956, "寝@@": 5957, "United": 5958, "早く": 5959, "ties": 5960, "局長": 5961, "用意": 5962, "当て": 5963, "疑@@": 5964, "甘@@": 5965, "超@@": 5966, "ABC": 5967, "すでに": 5968, "入門": 5969, "合っ": 5970, "1927": 5971, "赤い": 5972, "エース": 5973, "ord": 5974, "くり": 5975, "陣@@": 5976, "それ@@": 5977, "掛け": 5978, "tin": 5979, "インター@@": 5980, "LOVE": 5981, "AV": 5982, "合う": 5983, "FA": 5984, "快": 5985, "oph@@": 5986, "骨@@": 5987, "父@@": 5988, "涙": 5989, "mer": 5990, "モノ@@": 5991, "あたる": 5992, "卵": 5993, "発達": 5994, "ナス": 5995, "やや": 5996, "描く": 5997, "レーベル": 5998, "球場": 5999, "湖@@": 6000, "副@@": 6001, "驚@@": 6002, "しゃ@@": 6003, "トン@@": 6004, "さい": 6005, "近藤": 6006, "岐": 6007, "ライフ": 6008, "業界": 6009, "顕@@": 6010, "ゼン@@": 6011, "即@@": 6012, "ロバート": 6013, "忍": 6014, "中間": 6015, "アム@@": 6016, "摂@@": 6017, "ませ": 6018, "最多": 6019, "市川": 6020, "侵攻": 6021, "氷@@": 6022, "Im@@": 6023, "エル・@@": 6024, "向き": 6025, "}}": 6026, "敗北": 6027, "原画": 6028, "那": 6029, "折@@": 6030, "とっ": 6031, "授業": 6032, "始@@": 6033, "読み@@": 6034, "党@@": 6035, "さま": 6036, "果たす": 6037, "ノ・@@": 6038, "rin@@": 6039, "手紙": 6040, "1924": 6041, "汚@@": 6042, "公表": 6043, "ジャック": 6044, "益": 6045, "1889": 6046, "yl@@": 6047, "po@@": 6048, "左右": 6049, "Te@@": 6050, "晴": 6051, "Lin@@": 6052, "AB@@": 6053, "過ぎ": 6054, "Nor@@": 6055, "確@@": 6056, "有限": 6057, "残る": 6058, "峠": 6059, "岡崎": 6060, "%@@": 6061, "託": 6062, "エンタテインメント": 6063, "指示": 6064, "通っ": 6065, "耳": 6066, "航空機": 6067, "Me@@": 6068, "譲渡": 6069, "豪@@": 6070, "ii": 6071, "淳": 6072, "貨": 6073, "多かっ": 6074, "1926": 6075, "相談": 6076, "磨": 6077, "アンド@@": 6078, "うえ": 6079, "三浦": 6080, "皮": 6081, "取ら": 6082, "序@@": 6083, "マイケル": 6084, "ゲーム@@": 6085, "伊勢": 6086, "76@@": 6087, "落ち": 6088, "群@@": 6089, "tor": 6090, "帯@@": 6091, "若い": 6092, "乃@@": 6093, "パーソナリティ": 6094, "仏教": 6095, "結合": 6096, "奇@@": 6097, "晋": 6098, "社団": 6099, "oth@@": 6100, "プス": 6101, "扉": 6102, "薄@@": 6103, "end": 6104, "少なく": 6105, "サーチ": 6106, "聞い": 6107, "送っ": 6108, "径": 6109, "映@@": 6110, "アレクサン@@": 6111, "各国": 6112, "刑": 6113, "――": 6114, "ound": 6115, "すなわち": 6116, "終わり": 6117, "CE": 6118, "UE": 6119, "起点": 6120, "田村": 6121, "ョ": 6122, "衣@@": 6123, "亮": 6124, "共産党": 6125, "キシ@@": 6126, "大野": 6127, "エンター@@": 6128, "複@@": 6129, "信頼": 6130, "ジオ@@": 6131, "沿い": 6132, "置い": 6133, "フィリ@@": 6134, "ロック@@": 6135, "生じ": 6136, "流れる": 6137, "がる": 6138, "噴@@": 6139, "仮": 6140, "すぎ": 6141, "パイロット": 6142, "ボン@@": 6143, "ak": 6144, "ストロ@@": 6145, "ide": 6146, "最強": 6147, "氷": 6148, "優れ": 6149, "1925": 6150, "ねる": 6151, "処": 6152, "をもって": 6153, "no": 6154, "ターズ": 6155, "OT@@": 6156, "Comm@@": 6157, "バラ@@": 6158, "先行": 6159, "器@@": 6160, "ホールディングス": 6161, "さまざま": 6162, "整理": 6163, "詩@@": 6164, "スイス": 6165, "なぜ": 6166, "良く": 6167, "唐": 6168, "詳@@": 6169, "走行": 6170, "直し": 6171, "悩@@": 6172, "古典": 6173, "1923": 6174, "集中": 6175, "駐": 6176, "ケイ@@": 6177, "ホン@@": 6178, "答": 6179, "拓@@": 6180, "上海": 6181, "まさ@@": 6182, "ジェン@@": 6183, "ie@@": 6184, "ツァ@@": 6185, "鎮": 6186, "ベ": 6187, "マニ@@": 6188, "アイ": 6189, "43@@": 6190, "代理": 6191, "顧問": 6192, "こうした": 6193, "南北": 6194, "チン@@": 6195, "And@@": 6196, "トレー@@": 6197, "坂本": 6198, "閣": 6199, "朝日放送": 6200, "ライ": 6201, "ペット": 6202, "クエスト": 6203, "ロケット": 6204, "team": 6205, "孤@@": 6206, "スポーツ@@": 6207, "液": 6208, "ets": 6209, "特典": 6210, "Reg@@": 6211, "柏@@": 6212, "爆": 6213, "ボー": 6214, "\",": 6215, "衛門": 6216, "リニューアル": 6217, "私立": 6218, "止@@": 6219, "ライター": 6220, "da": 6221, "オブ・@@": 6222, "ys": 6223, "いし": 6224, "あげ": 6225, "WE@@": 6226, "命じ": 6227, "げ@@": 6228, "よい": 6229, "植民": 6230, "祥": 6231, "東洋": 6232, "配給": 6233, "130": 6234, "防止": 6235, "交響": 6236, "me@@": 6237, "まず": 6238, "軍団": 6239, "去@@": 6240, "Tr@@": 6241, "服@@": 6242, "投稿": 6243, "イル@@": 6244, "差し@@": 6245, "積極": 6246, "Po@@": 6247, "合同": 6248, "クス@@": 6249, "リング@@": 6250, "ナレーション": 6251, "阿部": 6252, "勲": 6253, "増え": 6254, "三菱@@": 6255, "低下": 6256, "組み合わせ": 6257, "束": 6258, "my": 6259, "願@@": 6260, "せよ": 6261, "いき": 6262, "住む": 6263, "住ん": 6264, "メッセージ": 6265, "シート": 6266, "争@@": 6267, "慎@@": 6268, "局@@": 6269, "プレミアム": 6270, "啓@@": 6271, "丹": 6272, "運輸": 6273, "北西": 6274, "暗殺": 6275, "言い@@": 6276, "HO@@": 6277, "que": 6278, "申し@@": 6279, "古い": 6280, "恋@@": 6281, "バイパス": 6282, "農": 6283, "青山": 6284, "侯": 6285, "洞": 6286, "必殺": 6287, "交通省": 6288, "戦時": 6289, "長く": 6290, "伯爵": 6291, "ェ": 6292, "オペラ": 6293, "施@@": 6294, "IV": 6295, "旅客": 6296, "大人": 6297, "カトリック": 6298, "歯": 6299, "Sk@@": 6300, "当日": 6301, "眠@@": 6302, "順位": 6303, "又は": 6304, "図書": 6305, "該当": 6306, "war@@": 6307, "扱う": 6308, "かす": 6309, "Ber@@": 6310, "浄@@": 6311, "貫@@": 6312, "称@@": 6313, "班": 6314, "抵抗": 6315, "Baseball": 6316, "Mi@@": 6317, "AGE": 6318, "祖父": 6319, "控@@": 6320, "ens": 6321, "梅": 6322, "つなが@@": 6323, "約束": 6324, "崩@@": 6325, "07@@": 6326, "職@@": 6327, "各駅": 6328, "幹部": 6329, "綾@@": 6330, "かかわら": 6331, "囲@@": 6332, "衝突": 6333, "ドライバー": 6334, "過程": 6335, "ネル": 6336, "藤田": 6337, "テレ": 6338, "せん": 6339, "アッ@@": 6340, "ウィン@@": 6341, "やし": 6342, "bl@@": 6343, "ery": 6344, "斎藤": 6345, "ールズ": 6346, "将来": 6347, "胸": 6348, "ぽ": 6349, "幅@@": 6350, "青木": 6351, "あき": 6352, "ave": 6353, "トーナメント": 6354, "空気": 6355, "music": 6356, "トルコ": 6357, "勝負": 6358, "敗退": 6359, "デジ@@": 6360, "メロ@@": 6361, "圧@@": 6362, "超える": 6363, "ハウ@@": 6364, "駅@@": 6365, "88@@": 6366, "勤@@": 6367, "袋": 6368, "グロー@@": 6369, "干@@": 6370, "打ち": 6371, "ea": 6372, "カテゴリ": 6373, "しき": 6374, "ick": 6375, "国王": 6376, "飛": 6377, "産経新聞": 6378, "コ・@@": 6379, "議論": 6380, "北朝鮮": 6381, "措置": 6382, "←": 6383, "狂@@": 6384, "称し": 6385, "礼@@": 6386, "ラブ": 6387, "バレーボール": 6388, "想@@": 6389, "タワー": 6390, "快@@": 6391, "旗@@": 6392, "ろう": 6393, "Net@@": 6394, "記さ": 6395, "座標": 6396, "箇所": 6397, "サウンド": 6398, "合意": 6399, "欲@@": 6400, "邸": 6401, "紫": 6402, "下げ": 6403, "Bra@@": 6404, "キング@@": 6405, "モール": 6406, "挿入": 6407, "彦@@": 6408, "平野": 6409, "ベルリン": 6410, "題@@": 6411, "CO": 6412, "My": 6413, "ヴァル@@": 6414, "登": 6415, "Sec@@": 6416, "エジプト": 6417, "糸": 6418, "RI@@": 6419, "越し": 6420, "浪@@": 6421, "高松": 6422, "スケート": 6423, "ハンガリー": 6424, "政党": 6425, "駐車": 6426, "mi@@": 6427, "誠@@": 6428, "庄": 6429, "手段": 6430, "雅": 6431, "仙@@": 6432, "いち@@": 6433, "番地": 6434, "鉱@@": 6435, "序": 6436, "予備": 6437, "歴任": 6438, "肥@@": 6439, "ょ": 6440, "残さ": 6441, "変わっ": 6442, "唐@@": 6443, "プレイ@@": 6444, "関数": 6445, "ノル@@": 6446, "バード": 6447, "アス": 6448, "カ・@@": 6449, "諸国": 6450, "ールド": 6451, "景@@": 6452, "正体": 6453, "ual": 6454, "課長": 6455, "ls": 6456, "‘": 6457, "多様": 6458, "全米": 6459, "発着": 6460, "AKB": 6461, "北東": 6462, "許@@": 6463, "ギリシャ": 6464, "部下": 6465, "fic@@": 6466, "トマ@@": 6467, "浪": 6468, "やがて": 6469, "構想": 6470, "インディ@@": 6471, "昇@@": 6472, "境界": 6473, "たっ": 6474, "屋敷": 6475, "字@@": 6476, "и": 6477, "玄": 6478, "バーグ": 6479, "ポスト": 6480, "焼": 6481, "貧@@": 6482, "午前": 6483, "Reference": 6484, "56@@": 6485, "コス@@": 6486, "尉": 6487, "脱出": 6488, "深い": 6489, "移住": 6490, "モニ@@": 6491, "大半": 6492, "生成": 6493, "故@@": 6494, "投げ": 6495, "PMC": 6496, "同一": 6497, ")”": 6498, "ノー": 6499, "呪@@": 6500, "Jo@@": 6501, "彰": 6502, "拝": 6503, "г@@": 6504, "ソビエト": 6505, "印@@": 6506, "22@@": 6507, "載": 6508, "140": 6509, "倒@@": 6510, "ヤク@@": 6511, "NS": 6512, "保有": 6513, "David": 6514, "曽@@": 6515, "ray": 6516, "キュー@@": 6517, "候": 6518, "リーズ": 6519, "金曜日": 6520, "natalie": 6521, "ウイ@@": 6522, "te": 6523, "早稲田大学": 6524, "要請": 6525, "対決": 6526, "乗": 6527, "分子": 6528, "走@@": 6529, "ハリ@@": 6530, "再建": 6531, "初版": 6532, "ature": 6533, "台風": 6534, "全長": 6535, "ヒロイン": 6536, "ヒー@@": 6537, "昔": 6538, "創刊": 6539, "嘉@@": 6540, "Bu@@": 6541, "後藤": 6542, "幼少": 6543, "集落": 6544, "ek": 6545, "はじ@@": 6546, "盗": 6547, "装甲": 6548, "ビット": 6549, "挑@@": 6550, "己": 6551, "小野": 6552, "女子@@": 6553, "信仰": 6554, "脅@@": 6555, "ケット": 6556, "現存": 6557, "幻": 6558, ":@@": 6559, "借@@": 6560, "カウン@@": 6561, "KO": 6562, "！@@": 6563, "ディスク": 6564, "補助": 6565, "ボタン": 6566, "120@@": 6567, "ボード": 6568, "Inc": 6569, "ニャ@@": 6570, "肉@@": 6571, "告@@": 6572, "bur@@": 6573, "ハン": 6574, "89@@": 6575, "遠": 6576, "PAR@@": 6577, "感情": 6578, "ウェア": 6579, "捨て": 6580, "1922": 6581, "解体": 6582, "読み": 6583, "死後": 6584, "長期": 6585, "公認": 6586, "ms": 6587, "GE@@": 6588, "地帯": 6589, "DI@@": 6590, "IB@@": 6591, "広い": 6592, "南西": 6593, "tim@@": 6594, "品@@": 6595, "駒@@": 6596, "恩@@": 6597, "転換": 6598, "興行": 6599, "協": 6600, "=@@": 6601, "社名": 6602, "リア・@@": 6603, "Rec@@": 6604, "メリ@@": 6605, "DA@@": 6606, "淡@@": 6607, "基づい": 6608, "ユ": 6609, "開か": 6610, "合戦": 6611, "さえ": 6612, "査": 6613, "偽@@": 6614, "復興": 6615, "手法": 6616, "厚": 6617, "斉": 6618, "lin@@": 6619, "属し": 6620, "ach": 6621, "塾": 6622, "たび": 6623, "瑞@@": 6624, "大島": 6625, "表面": 6626, "つまり": 6627, "キャリア": 6628, "鷹": 6629, "堺": 6630, "反乱": 6631, "ise": 6632, "致": 6633, "レオ@@": 6634, "参考": 6635, "ata": 6636, "}\\": 6637, "夫婦": 6638, "新規": 6639, "スマ@@": 6640, "烈": 6641, "デー": 6642, "流行": 6643, "長谷川": 6644, "洞@@": 6645, "遊": 6646, "翌日": 6647, "yst@@": 6648, "pre@@": 6649, "図鑑": 6650, "もつ": 6651, "団@@": 6652, "研修": 6653, "リオ@@": 6654, "AND": 6655, "ari@@": 6656, "UM@@": 6657, "引き続き": 6658, "1918": 6659, "厚生": 6660, "ニャ": 6661, "料金": 6662, "エール": 6663, "Pri@@": 6664, "越え": 6665, "リカ": 6666, "AS": 6667, "PR": 6668, "東海@@": 6669, "fin@@": 6670, "大隊": 6671, "当たる": 6672, "トライ@@": 6673, "史料": 6674, "範": 6675, "巻@@": 6676, "果": 6677, "ling": 6678, "校長": 6679, "近鉄": 6680, "IAL": 6681, "居住": 6682, "会見": 6683, "落ち@@": 6684, "筋@@": 6685, "DA": 6686, "ぬ@@": 6687, "old@@": 6688, "大宮": 6689, "蓮": 6690, "相撲": 6691, "ファイナル": 6692, "不動産": 6693, "上がっ": 6694, "下車": 6695, "養子": 6696, "実況": 6697, "雨@@": 6698, "クリア": 6699, "審議": 6700, "09@@": 6701, "声@@": 6702, "ni@@": 6703, "ラント": 6704, "ホイ@@": 6705, "コレ@@": 6706, "ブレー@@": 6707, "了": 6708, "わら": 6709, "差別": 6710, "times": 6711, "膜": 6712, "レート": 6713, "SA": 6714, "キャンパス": 6715, "チャ": 6716, "当該": 6717, "支払@@": 6718, "ster": 6719, "起こす": 6720, "マリア": 6721, "作者": 6722, "ダル@@": 6723, "生息": 6724, "見つ@@": 6725, "｣": 6726, "ight@@": 6727, "リード": 6728, "Cont@@": 6729, "かく": 6730, "貨@@": 6731, "06@@": 6732, "合唱": 6733, "がん": 6734, "ハー": 6735, "日経": 6736, "岩波書店": 6737, "解釈": 6738, "学ぶ": 6739, "コピー": 6740, "ギリシア": 6741, "実力": 6742, "グランド": 6743, "修正": 6744, "クレジット": 6745, "ドラ": 6746, "東西": 6747, "宣": 6748, "パウ@@": 6749, "益@@": 6750, "離脱": 6751, "itt@@": 6752, "切っ": 6753, "亀": 6754, "敵@@": 6755, "売却": 6756, "爆弾": 6757, "房@@": 6758, "替": 6759, "inter@@": 6760, "own": 6761, "自殺": 6762, "ke@@": 6763, "知り": 6764, "Mil@@": 6765, "申請": 6766, "曹@@": 6767, "教員": 6768, "装@@": 6769, "old": 6770, "rd": 6771, "固@@": 6772, "庄@@": 6773, "従事": 6774, "ick@@": 6775, "ta": 6776, "時計": 6777, "allcinema": 6778, "大震災": 6779, "確定": 6780, "祈@@": 6781, "敏": 6782, "収入": 6783, "進む": 6784, "タッグ": 6785, "奇": 6786, "VI@@": 6787, "ルー": 6788, "Cent@@": 6789, "強力": 6790, "二郎": 6791, "ピ": 6792, ".).": 6793, "リーン": 6794, "ピン": 6795, "係": 6796, "リート": 6797, "day": 6798, "桐@@": 6799, "輸入": 6800, "司@@": 6801, "ara": 6802, "通学": 6803, "ドラフト": 6804, "City": 6805, "700": 6806, "バス停": 6807, "ウル": 6808, "笠@@": 6809, "交代": 6810, "ッド・@@": 6811, "ich": 6812, "ental": 6813, "煙": 6814, "象": 6815, "1921": 6816, "違反": 6817, "KADOKAWA": 6818, "材料": 6819, "停留所": 6820, "八幡": 6821, "痛@@": 6822, "有し": 6823, "Life": 6824, "Can@@": 6825, "修了": 6826, "中華人民共和国": 6827, "南東": 6828, "キャンペーン": 6829, "夢@@": 6830, "妖怪": 6831, "統@@": 6832, "初め": 6833, "将@@": 6834, "役員": 6835, "黒い": 6836, "ムービー": 6837, "角川書店": 6838, "動作": 6839, "連結": 6840, "139": 6841, "絵画": 6842, "そのもの": 6843, "new": 6844, "info": 6845, "マイ": 6846, "つく": 6847, "悪い": 6848, "FE@@": 6849, "下り": 6850, "続@@": 6851, "往@@": 6852, "ars": 6853, "協同": 6854, "メガ@@": 6855, "投入": 6856, "機種": 6857, "ニッポン": 6858, "松田": 6859, "1919": 6860, "着用": 6861, "ass": 6862, "駅舎": 6863, "ah": 6864, "ッセ@@": 6865, "放": 6866, "銭": 6867, "GT": 6868, "world": 6869, "拠": 6870, "斬@@": 6871, "文学部": 6872, "循環": 6873, "狼": 6874, "ラク@@": 6875, "泣@@": 6876, "ミュージシャン": 6877, "ヌス": 6878, "Gir@@": 6879, "殺さ": 6880, "業者": 6881, "予想": 6882, "貫": 6883, "至っ": 6884, "ラル@@": 6885, "飼@@": 6886, "ゲート": 6887, "」（": 6888, "童@@": 6889, "まれ": 6890, "封": 6891, "sig@@": 6892, "盛@@": 6893, "the@@": 6894, "野田": 6895, "悠": 6896, "構築": 6897, "晃": 6898, "受け入れ": 6899, "つく@@": 6900, "頭部": 6901, "乗っ": 6902, "アプリ": 6903, "ユーザー": 6904, "先輩": 6905, "活性": 6906, "ホワイト": 6907, "su@@": 6908, "戻る": 6909, "ドリー@@": 6910, "導": 6911, "ファミ@@": 6912, "大佐": 6913, "野村": 6914, "葬@@": 6915, "地獄": 6916, "いつも": 6917, "勧@@": 6918, "コス": 6919, "仙": 6920, "ミッション": 6921, "ATION": 6922, "ひとり": 6923, "んな": 6924, "トリック": 6925, "模": 6926, "ラッ@@": 6927, "明治@@": 6928, "ja": 6929, "ベスト@@": 6930, "東北@@": 6931, "ヘッド": 6932, "ローカル": 6933, "改訂": 6934, "貯@@": 6935, "フィリピン": 6936, "興味": 6937, "OK": 6938, "ber": 6939, "秘": 6940, "ファミリー": 6941, "率い": 6942, "倶楽部": 6943, "傘下": 6944, "ッション": 6945, "All": 6946, "ヤン@@": 6947, "手術": 6948, "リッ@@": 6949, "Dre@@": 6950, "会話": 6951, "ジョー": 6952, "ear": 6953, "祖@@": 6954, "熊": 6955, "財政": 6956, "占@@": 6957, "にあたる": 6958, "起こ@@": 6959, "モンゴル": 6960, "確立": 6961, "ビジョン": 6962, "＋": 6963, "ソン・@@": 6964, "木曜": 6965, "Indi@@": 6966, "ama": 6967, "皆@@": 6968, "著@@": 6969, "ward": 6970, "北九州": 6971, "双": 6972, "敷地": 6973, "之助": 6974, "入手": 6975, "版@@": 6976, "ree": 6977, "実質": 6978, "阪@@": 6979, "体育館": 6980, "はず": 6981, "CL@@": 6982, "限ら": 6983, "ヘン@@": 6984, "ブレーキ": 6985, "Ger@@": 6986, "シナリオ": 6987, "陰": 6988, "テレビジョン": 6989, "擁@@": 6990, "たん": 6991, "鎖": 6992, "携@@": 6993, "飾@@": 6994, "鈴@@": 6995, "人工": 6996, "AI@@": 6997, "下記": 6998, "終え": 6999, "正確": 7000, "のに": 7001, "ひろ": 7002, "クラシック": 7003, "落語": 7004, "押し@@": 7005, "Phil@@": 7006, "アルバ@@": 7007, "保健": 7008, "いけ": 7009, "更@@": 7010, "180": 7011, "授与": 7012, "プレ": 7013, "時刻": 7014, "gra@@": 7015, "死ん": 7016, "~": 7017, "付ける": 7018, "侍": 7019, "fil@@": 7020, "小学": 7021, "大き": 7022, "1914": 7023, "ブン": 7024, "規@@": 7025, "й": 7026, "雲@@": 7027, "しん@@": 7028, "宣伝": 7029, "MUSIC": 7030, "ミュー@@": 7031, "資源": 7032, "紫@@": 7033, "原子力": 7034, "邦": 7035, "随@@": 7036, "育て": 7037, "個体": 7038, "引き": 7039, "nd@@": 7040, "辻": 7041, "隠し": 7042, "保障": 7043, "ガル": 7044, "譜": 7045, "徒": 7046, "末期": 7047, "予算": 7048, "黄金": 7049, "ビン@@": 7050, "攻": 7051, "ult@@": 7052, "来る": 7053, "サン・@@": 7054, "ガラス": 7055, "外部": 7056, "突破": 7057, "攻@@": 7058, "Eng@@": 7059, "設@@": 7060, "ダル": 7061, "ナンバー": 7062, "ギー": 7063, "フィア": 7064, "osh@@": 7065, "答え": 7066, "みる": 7067, "Ang@@": 7068, "NET": 7069, "VER@@": 7070, "Su@@": 7071, "三島": 7072, "藤井": 7073, "どう@@": 7074, "秦": 7075, "{@@": 7076, "充": 7077, "挟@@": 7078, "挙": 7079, "フィル@@": 7080, "還": 7081, "ens@@": 7082, "弓": 7083, "訴訟": 7084, "議@@": 7085, "ジニア": 7086, "預@@": 7087, "咲@@": 7088, "土木": 7089, "ony": 7090, "道具": 7091, "ロゴ": 7092, "UEFA": 7093, "憲": 7094, "国有": 7095, "函館": 7096, "廷": 7097, "浴@@": 7098, "守備": 7099, "渡し": 7100, "福田": 7101, "東洋@@": 7102, "堂@@": 7103, "操縦": 7104, "昇進": 7105, "育": 7106, "販": 7107, "sid@@": 7108, "恒@@": 7109, "試み": 7110, "ハム": 7111, "ノート": 7112, "国境": 7113, "とも@@": 7114, "Billboard": 7115, "サル": 7116, "不詳": 7117, "かかる": 7118, "さら@@": 7119, "TER": 7120, "amb@@": 7121, "アレンジ": 7122, "オーディション": 7123, "短": 7124, "タクシー": 7125, "紅@@": 7126, "死刑": 7127, "Sw@@": 7128, "リオン": 7129, "page": 7130, "ナビ@@": 7131, "ura": 7132, "ا@@": 7133, "エド@@": 7134, "Br@@": 7135, "隔@@": 7136, "FO@@": 7137, "菅@@": 7138, "ウィル@@": 7139, "摩": 7140, "馬場": 7141, "数字": 7142, "ire@@": 7143, "経緯": 7144, "概@@": 7145, "ign": 7146, "オフィシャルブログ": 7147, "争い": 7148, "ith@@": 7149, "ゲン@@": 7150, "Bas@@": 7151, "都道府県": 7152, "両方": 7153, "バラエティ": 7154, "アミ@@": 7155, "ライダー": 7156, "電撃": 7157, "僧": 7158, "ッジ": 7159, "推薦": 7160, "フライ@@": 7161, "込め": 7162, "Af@@": 7163, "ォ@@": 7164, "学ん": 7165, "参謀": 7166, "79@@": 7167, "ジェームズ": 7168, "WA@@": 7169, "側面": 7170, "達し": 7171, "銅@@": 7172, "原田": 7173, "接触": 7174, "祥@@": 7175, "ストー@@": 7176, "ワシントン": 7177, "ドン@@": 7178, "シャ": 7179, "ヤング": 7180, "玄@@": 7181, "Society": 7182, "銅": 7183, "コア": 7184, "るみ": 7185, "斎": 7186, "退職": 7187, "前期": 7188, "糖": 7189, "およそ": 7190, "衛生": 7191, "TA": 7192, "遺伝子": 7193, "ラム": 7194, "標高": 7195, "石油": 7196, "ストリート": 7197, "具体": 7198, "Rel@@": 7199, "あたり": 7200, "ボックス": 7201, "石田": 7202, "フォル@@": 7203, "織田": 7204, "おか@@": 7205, "因": 7206, "栽培": 7207, "105": 7208, "不可能": 7209, "短編": 7210, "繰り返し": 7211, "新潮社": 7212, "ペン": 7213, "隣": 7214, "ショー@@": 7215, "ヒト": 7216, "PL@@": 7217, "ネル@@": 7218, "フットボール": 7219, "尋常": 7220, "男爵": 7221, "堤": 7222, "回る": 7223, "マジ@@": 7224, "海洋": 7225, "藩@@": 7226, "On": 7227, "art": 7228, "ダイナ@@": 7229, "庁舎": 7230, "サブ": 7231, "小倉": 7232, "参": 7233, "〇": 7234, "念@@": 7235, "監視": 7236, "冬@@": 7237, "チャールズ": 7238, "況": 7239, "一致": 7240, "Machine": 7241, "ベースボール": 7242, "河内": 7243, "棄": 7244, "103": 7245, "ola": 7246, "フィー@@": 7247, "跡地": 7248, "ates": 7249, "イスラエル": 7250, "獄": 7251, "フォン・@@": 7252, "プル@@": 7253, "務省": 7254, "レール": 7255, "Lib@@": 7256, "琴": 7257, "起こっ": 7258, "慣@@": 7259, "抽@@": 7260, "right": 7261, "まえ": 7262, "壊@@": 7263, "資@@": 7264, "一切": 7265, "ゴル@@": 7266, "区画": 7267, "パートナー": 7268, "One": 7269, "回数": 7270, "聖書": 7271, "初頭": 7272, "蒲@@": 7273, "芝": 7274, "スポンサー": 7275, "スピード": 7276, "..@@": 7277, "ブラ": 7278, "1900": 7279, "そう@@": 7280, "Google": 7281, "士@@": 7282, "1917": 7283, "ジャケット": 7284, "たま": 7285, "頂@@": 7286, "ユース": 7287, "ロジー": 7288, "にわたって": 7289, "久保": 7290, "ドライブ": 7291, "継い": 7292, "準決勝": 7293, "飾": 7294, "陳": 7295, "豊田": 7296, "然@@": 7297, "承": 7298, "acc@@": 7299, "イヤー": 7300, "爵": 7301, "to@@": 7302, "January": 7303, "オフィシャルサイト": 7304, "寧": 7305, "笠": 7306, "担@@": 7307, "持": 7308, "wn": 7309, "辰@@": 7310, "エット": 7311, "西側": 7312, "ダイ": 7313, "ジム": 7314, "line": 7315, "エディ@@": 7316, "著書": 7317, "衣装": 7318, "油@@": 7319, "ond": 7320, "変換": 7321, "半分": 7322, "供@@": 7323, "きょう": 7324, "すら": 7325, "終盤": 7326, "迫": 7327, "Coun@@": 7328, "期限": 7329, "遠藤": 7330, "eral": 7331, "講演": 7332, "ka": 7333, "そんな": 7334, "説@@": 7335, "一家": 7336, "異常": 7337, "願い": 7338, "int": 7339, "明日": 7340, "ure@@": 7341, "入れ@@": 7342, "解除": 7343, "もり": 7344, "OL": 7345, "eth@@": 7346, "CE@@": 7347, "四郎": 7348, "欲": 7349, "ジュール": 7350, "架@@": 7351, "ストライ@@": 7352, "レンズ": 7353, "Cal@@": 7354, "沿岸": 7355, "熊@@": 7356, "使い@@": 7357, "チャイ@@": 7358, "輪@@": 7359, "ゼン": 7360, "敗@@": 7361, "戦死": 7362, "Tw@@": 7363, "准": 7364, "レストラン": 7365, "マンガ": 7366, "出会い": 7367, "king": 7368, "ath": 7369, "恐@@": 7370, "Trans@@": 7371, "助手": 7372, "武蔵": 7373, "閉店": 7374, "55@@": 7375, "ざる": 7376, "ワークス": 7377, "恐れ": 7378, "ソフト@@": 7379, "音源": 7380, "berg": 7381, "違う": 7382, "いえ": 7383, "菓子": 7384, "肩": 7385, "まつり": 7386, "索": 7387, "づくり": 7388, "無く": 7389, "NTT": 7390, "日報": 7391, "太子": 7392, "閣@@": 7393, "創造": 7394, "脱退": 7395, "早": 7396, "3000": 7397, "ボディ": 7398, "松平": 7399, "rop@@": 7400, "決戦": 7401, "改": 7402, "ee": 7403, "SS@@": 7404, "塚@@": 7405, "セブン": 7406, "ひろ@@": 7407, "外科": 7408, "高山": 7409, "宝塚": 7410, "Gr@@": 7411, "AZ@@": 7412, "次男": 7413, "TIM@@": 7414, "騎手": 7415, "05@@": 7416, "勤": 7417, "垂@@": 7418, "umb@@": 7419, "を通して": 7420, "欧": 7421, "再現": 7422, "1911": 7423, "言及": 7424, "ろし": 7425, "奴隷": 7426, "彩@@": 7427, "33@@": 7428, "я": 7429, "クリスマス": 7430, "加工": 7431, "May": 7432, "Alb@@": 7433, "作り@@": 7434, "1912": 7435, "蒸気": 7436, "To": 7437, "ボーイ": 7438, "毛@@": 7439, "宇都宮": 7440, "感謝": 7441, "償": 7442, "につ@@": 7443, "境@@": 7444, "インターチェンジ": 7445, "節@@": 7446, "分かれ": 7447, "ナビ": 7448, "ures": 7449, "port@@": 7450, "りん": 7451, "htm": 7452, "125": 7453, "発掘": 7454, "oo": 7455, "(#": 7456, "ミラ@@": 7457, "献@@": 7458, "俗": 7459, "話し": 7460, "検": 7461, "秩@@": 7462, "リエ": 7463, "赴@@": 7464, "レコーディング": 7465, "DE": 7466, "ゲル": 7467, "ly@@": 7468, "快速": 7469, "へ@@": 7470, "í@@": 7471, "--": 7472, "ALL": 7473, "ミュージック@@": 7474, "上陸": 7475, "CS": 7476, "エキ@@": 7477, "5000": 7478, "書院": 7479, "アシスタント": 7480, "^@@": 7481, "府@@": 7482, "ピア": 7483, "ロイ@@": 7484, "pe@@": 7485, "優先": 7486, "編著": 7487, "ロサンゼルス": 7488, "紗": 7489, "ision": 7490, "オフィス": 7491, "炭@@": 7492, "住居": 7493, "類似": 7494, "証言": 7495, "ital": 7496, "所蔵": 7497, "性質": 7498, "批評": 7499, "カッ@@": 7500, "別冊": 7501, "ning": 7502, "課題": 7503, "由": 7504, "EC": 7505, "高原": 7506, "一種": 7507, "測定": 7508, "安打": 7509, "水戸": 7510, "応用": 7511, "中隊": 7512, "Vi@@": 7513, "ウッド": 7514, "町名": 7515, "今後": 7516, "東日本旅客鉄道": 7517, "ism": 7518, "発揮": 7519, "落とし": 7520, "マップ": 7521, "平凡社": 7522, "寄り": 7523, "160": 7524, "ロウ": 7525, "%、": 7526, "喫@@": 7527, "漢@@": 7528, "ff": 7529, "名付け": 7530, "リ・@@": 7531, "振り": 7532, "戦線": 7533, "ゼル@@": 7534, "文明": 7535, "五輪": 7536, "真実": 7537, "War": 7538, "BOX": 7539, "85@@": 7540, "パック": 7541, "授@@": 7542, "レポート": 7543, "詩人": 7544, ")』": 7545, "1915": 7546, "111": 7547, "135": 7548, "ヒル": 7549, "Roc@@": 7550, "GO@@": 7551, "102": 7552, "士官": 7553, "KS": 7554, "日常": 7555, "複雑": 7556, "暮@@": 7557, "LL@@": 7558, "モチーフ": 7559, "ゴールド": 7560, "とど@@": 7561, "西村": 7562, "Go@@": 7563, "犯@@": 7564, "ung@@": 7565, "普段": 7566, "明確": 7567, "per": 7568, "軒": 7569, "モスクワ": 7570, "押し": 7571, "済@@": 7572, "出発": 7573, "下部": 7574, "気象": 7575, "rib@@": 7576, "ney": 7577, "賢": 7578, "留学": 7579, "ret@@": 7580, "中国@@": 7581, "マラソン": 7582, "履@@": 7583, "護@@": 7584, "古川": 7585, "Int@@": 7586, "広域": 7587, "利益": 7588, "フェスティバル": 7589, "内田": 7590, "増刊": 7591, "ウィリア@@": 7592, "Arch@@": 7593, "単行本": 7594, "寮": 7595, "フレー@@": 7596, "ワル@@": 7597, "oricon": 7598, "決意": 7599, "site": 7600, "フー@@": 7601, "ばし": 7602, "やま": 7603, "勲章": 7604, "保持": 7605, "罰": 7606, "file": 7607, "MBS": 7608, "帰っ": 7609, "珠": 7610, "ジェット": 7611, "繁@@": 7612, "宋": 7613, "●": 7614, "oug@@": 7615, "浜松": 7616, "カメ@@": 7617, "歌唱": 7618, "ライン@@": 7619, "自社": 7620, "ニア@@": 7621, "ざ": 7622, "得@@": 7623, "生み@@": 7624, "アメリカ@@": 7625, "繁": 7626, "ゥ": 7627, "西武": 7628, "信長": 7629, "権力": 7630, "サム": 7631, "戦史": 7632, "スパイ@@": 7633, "ジョー@@": 7634, "ws@@": 7635, "幣": 7636, "古く": 7637, "ニーズ": 7638, "At@@": 7639, "出走": 7640, "さいたま": 7641, "わし": 7642, "川口": 7643, "大手": 7644, "EM@@": 7645, "44@@": 7646, "TO": 7647, "流通": 7648, "彼@@": 7649, "1910": 7650, "労@@": 7651, "ターミナル": 7652, "レオン": 7653, "レンス": 7654, "オブ@@": 7655, "病気": 7656, "松井": 7657, "アサ@@": 7658, "ヌ・@@": 7659, "収集": 7660, "４": 7661, "態度": 7662, "稼@@": 7663, "トス": 7664, "Des@@": 7665, "日曜日": 7666, "メイク": 7667, "バーン": 7668, "電波": 7669, "ングル": 7670, "警視庁": 7671, "漢字": 7672, "火災": 7673, "東方": 7674, "tw@@": 7675, "演技": 7676, "スリー": 7677, "以内": 7678, "上がり": 7679, "di": 7680, "ターン": 7681, "区分": 7682, "クシ@@": 7683, "関与": 7684, "こと@@": 7685, "一度": 7686, "loc@@": 7687, "郷土": 7688, "ゴジラ": 7689, "乙女": 7690, "開局": 7691, "めぐ@@": 7692, "ada": 7693, "魔女": 7694, "俳@@": 7695, "危@@": 7696, "併設": 7697, "ヘイ@@": 7698, "スチ@@": 7699, "NAID": 7700, "言い": 7701, "Archived": 7702, "サム@@": 7703, "佐野": 7704, "ст@@": 7705, "アカ@@": 7706, "劣@@": 7707, "Ann@@": 7708, "唄": 7709, "アリス": 7710, "ino": 7711, "混乱": 7712, "攻略": 7713, "訳@@": 7714, "澄": 7715, "リウス": 7716, "グレー@@": 7717, "甲子園": 7718, "全線": 7719, "リチャード": 7720, "おこ@@": 7721, "促進": 7722, "ペー@@": 7723, "Soc@@": 7724, "島根": 7725, "フェン@@": 7726, "徐々に": 7727, "著名": 7728, "104": 7729, "診断": 7730, "とる": 7731, "悪化": 7732, "養成": 7733, "大輔": 7734, "牧": 7735, "委託": 7736, "先端": 7737, "電動": 7738, "原子": 7739, "離婚": 7740, "狩@@": 7741, "ライバル": 7742, "高校生": 7743, "盾": 7744, "宏@@": 7745, "小さい": 7746, "Rus@@": 7747, "爆撃": 7748, "ウルトラマン": 7749, "ov": 7750, "水曜": 7751, "イェ@@": 7752, "換え": 7753, "換": 7754, "б@@": 7755, "総督": 7756, "ロット": 7757, "CG": 7758, "踊@@": 7759, "打率": 7760, "帰還": 7761, "現れる": 7762, "最近": 7763, "ポケット": 7764, "WW@@": 7765, "ust": 7766, "Europ@@": 7767, "エフ@@": 7768, "Time": 7769, "ower": 7770, "Co": 7771, "極めて": 7772, "大将": 7773, "差@@": 7774, "ドラム": 7775, "、@@": 7776, "複合": 7777, "フィギュア": 7778, "怒@@": 7779, "起源": 7780, "Ind@@": 7781, "平安": 7782, "ゾーン": 7783, "築": 7784, "モア": 7785, "fac@@": 7786, "渡っ": 7787, "啓": 7788, "横山": 7789, "DC": 7790, "顔@@": 7791, "フジ": 7792, "コンテンツ": 7793, "マラ@@": 7794, "装着": 7795, "本体": 7796, "請@@": 7797, "条@@": 7798, "スル@@": 7799, "大塚": 7800, "アリ": 7801, "次第に": 7802, "模@@": 7803, "ちょう": 7804, "同期": 7805, "ぜ@@": 7806, "質問": 7807, "クロス@@": 7808, "哲": 7809, "やり": 7810, "婚@@": 7811, "禄": 7812, "オペ@@": 7813, "スル": 7814, "アンド・@@": 7815, "ガールズ": 7816, "ヘン": 7817, "1913": 7818, "オー": 7819, "戻し": 7820, "著者": 7821, "鐵": 7822, "九州@@": 7823, "CC": 7824, "土曜日": 7825, "丈": 7826, "遠征": 7827, "高木": 7828, "謀": 7829, "アキ@@": 7830, "正義": 7831, "少将": 7832, "パブリ@@": 7833, "解析": 7834, "伊勢@@": 7835, "出馬": 7836, "梨@@": 7837, "除い": 7838, "軌@@": 7839, "スミス": 7840, "bas@@": 7841, "呼び": 7842, "GA": 7843, "直通": 7844, "事例": 7845, "ミステリー": 7846, "含@@": 7847, "姿勢": 7848, "ビッグ": 7849, "曰く": 7850, "エム@@": 7851, "豆": 7852, "嫁": 7853, "ブルース": 7854, "幻@@": 7855, "カフェ": 7856, "やす": 7857, "ost": 7858, "学院大学": 7859, "Report": 7860, "デンマーク": 7861, "刷": 7862, "酸化": 7863, "ベルギー": 7864, "われ": 7865, "いわ@@": 7866, "辞任": 7867, "沖@@": 7868, "暴力": 7869, "改め": 7870, "北条": 7871, "onichi": 7872, "リスク": 7873, "マックス": 7874, "逆転": 7875, "{{{": 7876, "チェコ": 7877, "php": 7878, "クリエイ@@": 7879, "Studi@@": 7880, "ケル@@": 7881, "槻": 7882, "ラウンド": 7883, "至": 7884, "照明": 7885, "パッケージ": 7886, "深く": 7887, "ミッド@@": 7888, "忘れ": 7889, "タス": 7890, "抜け": 7891, "ris": 7892, "77@@": 7893, "資産": 7894, "蓮@@": 7895, "SD": 7896, "欄": 7897, "出来事": 7898, "退団": 7899, "立候補": 7900, "取り上げ": 7901, "炭": 7902, "求": 7903, "置@@": 7904, "方言": 7905, "福山": 7906, "ダメージ": 7907, "air@@": 7908, "追放": 7909, "あらゆる": 7910, "紙@@": 7911, "ype": 7912, "霧": 7913, "主力": 7914, "傾@@": 7915, "アブ@@": 7916, "ストリー@@": 7917, "様式": 7918, "一人@@": 7919, "即位": 7920, "上下": 7921, "歌う": 7922, "横須賀": 7923, "全域": 7924, "Sing@@": 7925, "親王": 7926, "斉藤": 7927, "ск@@": 7928, "ュ": 7929, "Science": 7930, "度@@": 7931, "ヨ": 7932, "叩@@": 7933, "ジャズ": 7934, "開い": 7935, "依存": 7936, "cer@@": 7937, "Ear@@": 7938, "ros@@": 7939, "虐@@": 7940, "ニング@@": 7941, "スコットランド": 7942, "成田": 7943, "ベン": 7944, "スイ@@": 7945, "ウォル@@": 7946, "岡本": 7947, "薫": 7948, "突き@@": 7949, "75@@": 7950, "消え": 7951, "デモ": 7952, "まさ": 7953, "小松": 7954, "今井": 7955, "握@@": 7956, "gu@@": 7957, "音響": 7958, "インターナショナル": 7959, "ph": 7960, "芦@@": 7961, "延期": 7962, "風景": 7963, "小惑星": 7964, "辺@@": 7965, "キット": 7966, "日々": 7967, "渋@@": 7968, "空中": 7969, "ラスト": 7970, "feat": 7971, "ちょ@@": 7972, "債@@": 7973, "離": 7974, "ヴ・@@": 7975, "マン・@@": 7976, "費用": 7977, "両者": 7978, "輸出": 7979, "Air@@": 7980, "鈴": 7981, "走る": 7982, "打撃": 7983, "決まっ": 7984, "送り": 7985, "コマ": 7986, "主体": 7987, "市街地": 7988, "訪@@": 7989, "フランク": 7990, "States": 7991, "ウルトラ": 7992, "ファンタジー": 7993, "熟": 7994, "尽@@": 7995, "働い": 7996, "大谷": 7997, "學": 7998, "文芸": 7999, "粉": 8000, "当主": 8001, "渡り": 8002, "泊": 8003, "代替": 8004, "臨床": 8005, "行方": 8006, "失わ": 8007, "総理": 8008, "カナ@@": 8009, "ピン@@": 8010, "スン": 8011, "称号": 8012, "na": 8013, "なす": 8014, "NO@@": 8015, "任意": 8016, "Ke@@": 8017, "ごく": 8018, "分校": 8019, "ita": 8020, "火曜": 8021, "PR@@": 8022, "デザイナー": 8023, "見せる": 8024, "天然": 8025, "産経": 8026, "義務": 8027, "家臣": 8028, "照": 8029, "新作": 8030, "歌っ": 8031, "MV": 8032, "fer@@": 8033, "Sup@@": 8034, "倫": 8035, "号機": 8036, "改札": 8037, "С@@": 8038, "失点": 8039, "郵@@": 8040, "おお@@": 8041, "スコット": 8042, "涼": 8043, "市営": 8044, "気持ち": 8045, "rip@@": 8046, "再度": 8047, "短い": 8048, "阿": 8049, "巡洋艦": 8050, "スター・@@": 8051, "adi@@": 8052, "笹@@": 8053, "デル": 8054, "ヨハ@@": 8055, "話@@": 8056, "上り": 8057, "経路": 8058, "コート": 8059, "プラザ": 8060, "TER@@": 8061, "you": 8062, "ガード": 8063, "天才": 8064, "痛": 8065, "来日": 8066, "ワイン": 8067, "月末": 8068, "キロ": 8069, "fe@@": 8070, "重視": 8071, "楽天": 8072, "ティス": 8073, "享": 8074, "締@@": 8075, "NI@@": 8076, "織@@": 8077, "イラ@@": 8078, "有力": 8079, "考慮": 8080, "ew@@": 8081, "路@@": 8082, "邪@@": 8083, "マガ@@": 8084, "ドリーム": 8085, "存": 8086, "インチ": 8087, "もっとも": 8088, "安田": 8089, "トリ": 8090, "子孫": 8091, "象@@": 8092, "証拠": 8093, "守護": 8094, "重ね": 8095, "思う": 8096, "mm@@": 8097, "ACK": 8098, "Project": 8099, "ポン": 8100, "ニックス": 8101, "ste@@": 8102, "損@@": 8103, "96@@": 8104, "らん": 8105, "グラス": 8106, "テロ": 8107, "修理": 8108, "小山": 8109, "科大学": 8110, "Pi@@": 8111, "NA@@": 8112, "109": 8113, "神宮": 8114, "enc@@": 8115, "ect": 8116, "在住": 8117, "ub": 8118, "iss": 8119, "後方": 8120, "じめ": 8121, "1916": 8122, "競輪": 8123, "pla@@": 8124, "MM@@": 8125, "維新": 8126, "ジャーナル": 8127, "sia": 8128, "ams": 8129, ".\"": 8130, "ank": 8131, "柴田": 8132, "倒し": 8133, "グル": 8134, "TR": 8135, "パフォーマンス": 8136, "水道": 8137, "アラビア": 8138, "象徴": 8139, "ald": 8140, "桃": 8141, "朝日新聞社": 8142, "ブックス": 8143, "トロ": 8144, "ソース": 8145, "ven@@": 8146, "開店": 8147, "問わ": 8148, "くれる": 8149, "社会@@": 8150, "解消": 8151, "許さ": 8152, "ра@@": 8153, "ツー@@": 8154, "簿": 8155, "form@@": 8156, "伝える": 8157, "AP": 8158, "上演": 8159, "を@@": 8160, "Robert": 8161, "再会": 8162, "コンセプト": 8163, "UP": 8164, "James": 8165, "多摩": 8166, "Office": 8167, "YO@@": 8168, "ママ": 8169, "しも": 8170, "SE": 8171, "傷@@": 8172, "ケーブル": 8173, "音楽@@": 8174, "武蔵@@": 8175, "リミ@@": 8176, "同級生": 8177, "騒@@": 8178, "余": 8179, "途@@": 8180, "遭@@": 8181, "再編": 8182, "オーバー": 8183, "獲": 8184, "格闘": 8185, "並": 8186, "バック@@": 8187, "らえ": 8188, "上部": 8189, "ов@@": 8190, "停車場": 8191, "括": 8192, "Web@@": 8193, "オート@@": 8194, "メモ@@": 8195, "シー・@@": 8196, "ライセンス": 8197, "希@@": 8198, "CT": 8199, "怒り": 8200, "徴@@": 8201, "支社": 8202, "ニコニコ": 8203, "不定期": 8204, "08@@": 8205, "叙@@": 8206, "モス": 8207, "ランド@@": 8208, "じん": 8209, "振": 8210, "フリ@@": 8211, "殻": 8212, "送ら": 8213, "過": 8214, "とか": 8215, "称さ": 8216, "壇": 8217, "椎@@": 8218, "植": 8219, "激しい": 8220, "ナポ@@": 8221, "恐怖": 8222, "頂": 8223, "受験": 8224, "ザン": 8225, "続編": 8226, "逸@@": 8227, "財産": 8228, "ric": 8229, "フロン@@": 8230, "滞在": 8231, "伝承": 8232, "クルー@@": 8233, "抗": 8234, "本拠地": 8235, "意思": 8236, "自民党": 8237, "梁": 8238, "工作": 8239, "事前": 8240, "ビール": 8241, "浸@@": 8242, "ボーイ@@": 8243, "女神": 8244, "WA": 8245, "発明": 8246, "妙": 8247, "柔@@": 8248, "記し": 8249, "昼": 8250, "屋根": 8251, "学年": 8252, "広島@@": 8253, "才": 8254, "115": 8255, "美少女": 8256, "容疑": 8257, "言え": 8258, "1907": 8259, "掲@@": 8260, "必ず": 8261, "ren@@": 8262, "毎日放送": 8263, "記号": 8264, "竹内": 8265, "銘": 8266, "監": 8267, "依": 8268, "紋": 8269, "引き継@@": 8270, "IP": 8271, "飯": 8272, "虹": 8273, "公社": 8274, "特撮": 8275, "在学": 8276, "Jr": 8277, "プロモーション": 8278, "耕@@": 8279, "負担": 8280, "ビュ@@": 8281, "誘導": 8282, "かかっ": 8283, "開館": 8284, "ett@@": 8285, "崇": 8286, "師@@": 8287, "一員": 8288, "Pal@@": 8289, "Sm@@": 8290, "Hz": 8291, "不良": 8292, "郭": 8293, "桁": 8294, "分岐": 8295, "評@@": 8296, "マネ@@": 8297, "謙@@": 8298, "部品": 8299, "観察": 8300, "搭乗": 8301, "史跡": 8302, "ジャンル": 8303, "}{": 8304, "Wayback": 8305, "112": 8306, "YA": 8307, "とおり": 8308, "釈@@": 8309, "親友": 8310, "しばらく": 8311, "BEST": 8312, "ピーター": 8313, "引用": 8314, "1908": 8315, "もう@@": 8316, "卓": 8317, "インドネシア": 8318, "gro@@": 8319, "足利": 8320, "造船": 8321, "ano": 8322, "ns": 8323, "連覇": 8324, "ington": 8325, "ティン": 8326, "送信": 8327, "した": 8328, "ws": 8329, "学び": 8330, "レッド@@": 8331, "ヴィン@@": 8332, "1906": 8333, "Michael": 8334, "岩波": 8335, "掃@@": 8336, "北陸": 8337, "レンジャー": 8338, "戒": 8339, "学区": 8340, "．": 8341, "５": 8342, "フィンランド": 8343, "慰@@": 8344, "白石": 8345, "朱": 8346, "潤": 8347, "PV": 8348, "わかる": 8349, "吉川": 8350, "イラン": 8351, "YS": 8352, "Li@@": 8353, "AA": 8354, "!!（": 8355, "pres@@": 8356, "沿革": 8357, "ograph@@": 8358, "トー": 8359, "レ・@@": 8360, "侵入": 8361, "sis": 8362, "阪急": 8363, "北側": 8364, "認可": 8365, "中将": 8366, "ater": 8367, "児@@": 8368, "ound@@": 8369, "官房": 8370, "Sal@@": 8371, "発音": 8372, "完": 8373, "アント@@": 8374, "通う": 8375, "練": 8376, "中学生": 8377, "歌謡": 8378, "読む": 8379, "特性": 8380, "「@@": 8381, "寒@@": 8382, "ヨン": 8383, "正月": 8384, "効率": 8385, "たか": 8386, "Mac@@": 8387, "ゴールデン": 8388, "108": 8389, "キャンプ": 8390, "シング": 8391, "簡易": 8392, "USS": 8393, "淵": 8394, "ウェル@@": 8395, "嫌い": 8396, "Ale@@": 8397, "萩@@": 8398, "突然": 8399, "タイムズ": 8400, "高級": 8401, "Mod@@": 8402, "抗議": 8403, "ォ": 8404, "故郷": 8405, "橘": 8406, "発動": 8407, "容易": 8408, "フェリー": 8409, "朝鮮@@": 8410, "マツ@@": 8411, "競争": 8412, "CT@@": 8413, "信じ": 8414, "條": 8415, "神田": 8416, "射撃": 8417, "過ごし": 8418, "ET": 8419, "経過": 8420, "ベイ": 8421, "塗@@": 8422, "パソコン": 8423, "Ros@@": 8424, "魅力": 8425, "亡くなっ": 8426, "ウィーン": 8427, "なか@@": 8428, "ger": 8429, "113": 8430, "想い": 8431, "earch": 8432, "ちなみに": 8433, "シャン@@": 8434, "TOUR": 8435, "割り@@": 8436, "ヤー@@": 8437, "誇@@": 8438, "War@@": 8439, "釈": 8440, "SK@@": 8441, "入力": 8442, "edia": 8443, "ヴォル@@": 8444, "屈@@": 8445, "伊達": 8446, "読": 8447, "女の子": 8448, "もん": 8449, "慶應義塾": 8450, "eta": 8451, "och@@": 8452, "スマート": 8453, "意図": 8454, "Star": 8455, "別れ": 8456, "告白": 8457, "ハンター": 8458, "死者": 8459, "onom@@": 8460, "It": 8461, "ヴィー@@": 8462, "アマ@@": 8463, "犯人": 8464, "全面": 8465, "Of": 8466, "ine@@": 8467, "ァ@@": 8468, "駿": 8469, "-』": 8470, "グラム": 8471, "ild@@": 8472, "戻り": 8473, "日向": 8474, "オオ@@": 8475, "о": 8476, "ports": 8477, "ichi": 8478, "本店": 8479, "ict@@": 8480, "単純": 8481, "返す": 8482, "教徒": 8483, "チャレンジ": 8484, "You@@": 8485, "温度": 8486, "明る@@": 8487, "半ば": 8488, "ファッション": 8489, "列伝": 8490, "美しい": 8491, "原題": 8492, "キョ@@": 8493, "果@@": 8494, "興信@@": 8495, "航@@": 8496, "衰@@": 8497, "All@@": 8498, "伸": 8499, "避難": 8500, "出席": 8501, "もっと": 8502, "牙": 8503, "リスナー": 8504, "amil@@": 8505, "揃@@": 8506, "博多": 8507, "arch@@": 8508, "火山": 8509, "Ol@@": 8510, "背": 8511, "CH": 8512, "EP": 8513, "刻@@": 8514, "宮本": 8515, "ケル": 8516, "ノン@@": 8517, "Sol@@": 8518, "実績": 8519, "眠": 8520, "March": 8521, "ノス": 8522, "フライ": 8523, "異なっ": 8524, "UK@@": 8525, "おお": 8526, "付き@@": 8527, "ラグ@@": 8528, "実践": 8529, ".)": 8530, "ve@@": 8531, "関心": 8532, "ages": 8533, "盛り@@": 8534, "左衛門": 8535, "フロント": 8536, "カロ@@": 8537, "スピー@@": 8538, "法学": 8539, "次ぐ": 8540, "з@@": 8541, "青い": 8542, "犬@@": 8543, "毒@@": 8544, "皮@@": 8545, "歯@@": 8546, "やり@@": 8547, "バス@@": 8548, "日野": 8549, "001": 8550, "スワ@@": 8551, "拡@@": 8552, "位置@@": 8553, "あい@@": 8554, "detail": 8555, "不思議": 8556, "レーン": 8557, "犠牲": 8558, "フォーム": 8559, "大使館": 8560, "港@@": 8561, "リバ@@": 8562, "援助": 8563, "yd@@": 8564, "カンパニー": 8565, "引っ@@": 8566, "ツ・@@": 8567, "なき": 8568, "山脈": 8569, "直線": 8570, "チャン@@": 8571, "カレッジ": 8572, "ative": 8573, "ルイス": 8574, "海賊": 8575, "勘@@": 8576, "故障": 8577, "請求": 8578, "Tom@@": 8579, "共有": 8580, "107": 8581, "拓": 8582, "BB": 8583, "島田": 8584, "南海": 8585, "もともと": 8586, "ウー@@": 8587, "桜井": 8588, "到達": 8589, "銀座": 8590, "最低": 8591, "アム": 8592, "友達": 8593, "コンクール": 8594, "運命": 8595, "アリー": 8596, "Prin@@": 8597, "禁": 8598, "同月": 8599, "パターン": 8600, "スポ@@": 8601, "外務省": 8602, "国際@@": 8603, "若手": 8604, "ヤン": 8605, "働く": 8606, "込": 8607, "雇用": 8608, "バッハ": 8609, "生きる": 8610, "tical": 8611, "Association": 8612, "立大学": 8613, "語り": 8614, "功@@": 8615, "グラフィ@@": 8616, "肢": 8617, "Me": 8618, "クトル": 8619, "規": 8620, "ax@@": 8621, "do": 8622, "毎": 8623, "亡@@": 8624, "ゴー": 8625, "東側": 8626, "線路": 8627, "巳": 8628, "遇": 8629, "食べる": 8630, "圭": 8631, "復": 8632, "106": 8633, "黒田": 8634, "ノルウェー": 8635, "舟": 8636, "フィー": 8637, "官僚": 8638, "選定": 8639, "船舶": 8640, "関西テレビ": 8641, "会計": 8642, "でん": 8643, "中期": 8644, "ブライ@@": 8645, "あろ": 8646, "零": 8647, "プ・@@": 8648, "Online": 8649, "aj@@": 8650, "糸@@": 8651, "食事": 8652, "è@@": 8653, "月曜日": 8654, "ッシング": 8655, "カラ": 8656, "大津": 8657, "中華": 8658, "イツ": 8659, "推理": 8660, "斜@@": 8661, "Fe@@": 8662, "モル@@": 8663, "キス": 8664, "チェン@@": 8665, "刃": 8666, "塗装": 8667, "ソン@@": 8668, "グロ@@": 8669, "ブン@@": 8670, "継@@": 8671, "演じる": 8672, "恭@@": 8673, "縮": 8674, "ICE": 8675, "故": 8676, "sy@@": 8677, "イタ@@": 8678, "隊員": 8679, "自主": 8680, "気候": 8681, "広げ": 8682, "網@@": 8683, "over": 8684, "まら": 8685, "Best": 8686, "条例": 8687, "ストア": 8688, "針": 8689, "元気": 8690, "っくり": 8691, "警": 8692, "敦@@": 8693, "冒頭": 8694, "Gam@@": 8695, "小田@@": 8696, "老人": 8697, "Sim@@": 8698, "アイス@@": 8699, "ッケ@@": 8700, "一環": 8701, "抱い": 8702, "側@@": 8703, "征": 8704, "派@@": 8705, "シンガポール": 8706, "天正": 8707, "シュタ@@": 8708, "合わ": 8709, "コンテスト": 8710, "デラ@@": 8711, "パナ@@": 8712, "ヘビー": 8713, "武将": 8714, "表彰": 8715, "瞳": 8716, "退任": 8717, "精": 8718, "けい": 8719, "菊池": 8720, "ひと@@": 8721, "示さ": 8722, "comp@@": 8723, "らしく": 8724, "math@@": 8725, "ボイ@@": 8726, "ぼく": 8727, "訓": 8728, "もなく": 8729, "PlayStation": 8730, "短縮": 8731, "夕刊": 8732, "判@@": 8733, "ミア": 8734, "ばん": 8735, "申": 8736, "認": 8737, "天気": 8738, "Mag@@": 8739, "Kn@@": 8740, "まり@@": 8741, "水野": 8742, "ソニー": 8743, "Val@@": 8744, "JO@@": 8745, "雷@@": 8746, "変形": 8747, "細": 8748, "未満": 8749, "慕@@": 8750, "癖": 8751, "落と@@": 8752, "出資": 8753, "NBA": 8754, "Olymp@@": 8755, "COM": 8756, "era": 8757, "磯@@": 8758, "それでも": 8759, "高齢": 8760, "ヘンリー": 8761, "戦っ": 8762, "GR@@": 8763, "KINENOTE": 8764, "破り": 8765, "森田": 8766, "cor@@": 8767, "アーズ": 8768, "賞金": 8769, "簡単": 8770, "沿@@": 8771, "瀬戸": 8772, "庶@@": 8773, "懲@@": 8774, "タンク": 8775, "シャン": 8776, "ベリー": 8777, "徹@@": 8778, "処刑": 8779, "議席": 8780, "ニン": 8781, "嶺": 8782, "DNA": 8783, "抜き": 8784, "エーション": 8785, "空母": 8786, "戻@@": 8787, "ドキュメンタリー": 8788, "小島": 8789, "別名": 8790, "サスペ@@": 8791, "撤去": 8792, "受": 8793, "assi@@": 8794, "三木": 8795, "今回": 8796, "nikkansports": 8797, "tion@@": 8798, "ublic": 8799, "撮@@": 8800, "期生": 8801, "学長": 8802, "報じ": 8803, "旭": 8804, "An": 8805, "大名": 8806, "類@@": 8807, "Mus@@": 8808, "継": 8809, "かね": 8810, "emb@@": 8811, "童": 8812, "訴え": 8813, "疑問": 8814, "日市": 8815, "Dra@@": 8816, "クール": 8817, "エレク@@": 8818, "幼い": 8819, "働き": 8820, "ブラウン": 8821, "サス": 8822, "量@@": 8823, "分裂": 8824, "衝撃": 8825, "国連": 8826, "楽園": 8827, "ウィン": 8828, "終わる": 8829, "接近": 8830, "触れ": 8831, "アルゼンチン": 8832, "若者": 8833, "Coll@@": 8834, "測@@": 8835, "シネマ@@": 8836, "遂@@": 8837, "ゆり": 8838, "楽し@@": 8839, "買い@@": 8840, "wood": 8841, "ピュ@@": 8842, "ボーナス": 8843, "詰@@": 8844, "っぽ@@": 8845, "なれ": 8846, "領土": 8847, "サッ@@": 8848, "保守": 8849, "魔王": 8850, "Bre@@": 8851, "ears": 8852, "ロケ": 8853, "譲": 8854, "ルイ@@": 8855, "金子": 8856, "試作": 8857, "成分": 8858, "グラフ": 8859, "安藤": 8860, "民俗": 8861, "回収": 8862, "掘@@": 8863, "貌": 8864, "USA": 8865, "ァ": 8866, "融合": 8867, "ステー@@": 8868, "天文": 8869, "旋@@": 8870, "くに": 8871, "プレゼント": 8872, "Sou@@": 8873, "アメリカン": 8874, "ピク@@": 8875, "諏訪": 8876, "tal@@": 8877, "ゾン": 8878, "研@@": 8879, "匠": 8880, "勝ち@@": 8881, "ジェネ@@": 8882, "基づき": 8883, "レスラー": 8884, "途": 8885, "Rob@@": 8886, "戦前": 8887, "吾@@": 8888, "ショッピング": 8889, "アマチュア": 8890, "固": 8891, "墓@@": 8892, "夕": 8893, "法学部": 8894, "具@@": 8895, "1909": 8896, "助教授": 8897, "ha": 8898, "させ": 8899, "相続": 8900, "勉強": 8901, "圭@@": 8902, "Ser@@": 8903, "近畿": 8904, "飯田": 8905, "製作所": 8906, "魏": 8907, "PRO@@": 8908, "BGM": 8909, "ese": 8910, "190@@": 8911, "下ろし": 8912, "To@@": 8913, "County": 8914, "単に": 8915, "琉球": 8916, "表紙": 8917, "師範": 8918, "妙@@": 8919, "互@@": 8920, "石原": 8921, "秘書": 8922, "木造": 8923, "ip": 8924, "磐@@": 8925, "リト@@": 8926, "ane": 8927, "!?": 8928, "くし": 8929, "low": 8930, "シュタイン": 8931, "ディズニー": 8932, "34@@": 8933, "長年": 8934, "ついに": 8935, "外見": 8936, "文部": 8937, "さん@@": 8938, "ブラック@@": 8939, "殖": 8940, "ood@@": 8941, "小学生": 8942, "Str@@": 8943, "損害": 8944, "ールド@@": 8945, "of@@": 8946, "オーケストラ": 8947, "既存": 8948, "号@@": 8949, "バイス": 8950, "よう@@": 8951, "文藝春秋": 8952, "勅": 8953, "回っ": 8954, "デート": 8955, "MP@@": 8956, "一軍": 8957, "隊長": 8958, "ca": 8959, "盛岡": 8960, "伴": 8961, "アポ@@": 8962, "とら": 8963, "工学部": 8964, "起こる": 8965, "運航": 8966, "誓@@": 8967, "消し": 8968, "猪@@": 8969, "April": 8970, "盛ん": 8971, "たし": 8972, "」”.": 8973, "挙@@": 8974, "136": 8975, "活": 8976, "推測": 8977, "題材": 8978, "響": 8979, "IO": 8980, "115@@": 8981, "特許": 8982, "日誌": 8983, "Ver": 8984, "運賃": 8985, "伐": 8986, "永遠": 8987, "除き": 8988, "117": 8989, "司法": 8990, "けん@@": 8991, "夜間": 8992, "BE": 8993, "クター@@": 8994, "肉体": 8995, "停@@": 8996, "効": 8997, "特技": 8998, "ワーク": 8999, "Bur@@": 9000, "Jos@@": 9001, "William": 9002, "背番号": 9003, "検証": 9004, "パーティー": 9005, "Med@@": 9006, "レム": 9007, "バレエ": 9008, "次々": 9009, "実装": 9010, "灯@@": 9011, "コーラス": 9012, "庵": 9013, "タール": 9014, "葵": 9015, "変わる": 9016, "噂": 9017, "Sum@@": 9018, "沿っ": 9019, "スカイ": 9020, "建立": 9021, "開拓": 9022, "巡": 9023, "連勝": 9024, "鳳": 9025, "AV@@": 9026, "年表": 9027, "架空": 9028, "疾患": 9029, "印象": 9030, "暫定": 9031, "Review": 9032, "114": 9033, "mat@@": 9034, "е": 9035, "審判": 9036, "五十@@": 9037, "マリオ": 9038, "マーケット": 9039, "Stre@@": 9040, "療法": 9041, "扱わ": 9042, "下位": 9043, "上がる": 9044, "工業@@": 9045, "Histor@@": 9046, "被": 9047, "配備": 9048, "冠@@": 9049, "ルイ": 9050, "ニス": 9051, "兄@@": 9052, "ルーム": 9053, "ふるさと": 9054, "レビュー": 9055, "Gro@@": 9056, "トーマス": 9057, "合体": 9058, "売上": 9059, "NO": 9060, "cc": 9061, "tr@@": 9062, "止": 9063, "騒動": 9064, "庭園": 9065, "メッ@@": 9066, "経済@@": 9067, "昼@@": 9068, "森林": 9069, "yc@@": 9070, "パ・@@": 9071, "za": 9072, "分解": 9073, "酒井": 9074, "ゆく": 9075, "HI": 9076, "炉": 9077, "ipp@@": 9078, "ラリー": 9079, "1905": 9080, "キック": 9081, "航海": 9082, "吹": 9083, "エンド": 9084, "Top": 9085, "縄@@": 9086, "log@@": 9087, "MAN@@": 9088, "支え": 9089, "シナ@@": 9090, "ミル": 9091, "刀@@": 9092, "lin": 9093, "デス@@": 9094, "愛し": 9095, "症状": 9096, "彫刻": 9097, "位@@": 9098, ".）": 9099, "ハワイ": 9100, "成果": 9101, "アリーナ": 9102, "後任": 9103, "素材": 9104, "乗降": 9105, "ロング": 9106, "評議": 9107, "修士": 9108, "同上": 9109, "ジョン@@": 9110, "後者": 9111, "占め": 9112, "Man": 9113, "チ・@@": 9114, "調教": 9115, "大久保": 9116, "ert@@": 9117, "功績": 9118, "車線": 9119, "気づ@@": 9120, "official": 9121, "ウント": 9122, "力士": 9123, "ソー": 9124, "鑑@@": 9125, "Ltd": 9126, "端末": 9127, "TB": 9128, "鍵": 9129, "装飾": 9130, "南側": 9131, "オス@@": 9132, "HD": 9133, "EX": 9134, "幽@@": 9135, "駆け@@": 9136, "もた@@": 9137, "ドール": 9138, "用途": 9139, "Hor@@": 9140, "明け": 9141, "想定": 9142, "招待": 9143, "打点": 9144, "唱@@": 9145, "DD@@": 9146, "Mat@@": 9147, "たとえば": 9148, "三振": 9149, "ヴォー@@": 9150, "賃@@": 9151, "トラブル": 9152, "包囲": 9153, "人数": 9154, "芳": 9155, "通行": 9156, "Fac@@": 9157, "補佐": 9158, "保安": 9159, "LS": 9160, "従業": 9161, "ファースト": 9162, "ason": 9163, "損": 9164, "調べ": 9165, "ハード": 9166, "CN": 9167, "シャル": 9168, "oday": 9169, "君@@": 9170, "地形": 9171, "みな@@": 9172, "Awards": 9173, "サイン": 9174, "121": 9175, "Ref": 9176, "新潮": 9177, "伴っ": 9178, "辛@@": 9179, "有料": 9180, "Ter@@": 9181, "ギア": 9182, "粒子": 9183, "トップ@@": 9184, "馴@@": 9185, "サイ": 9186, "艦長": 9187, "如": 9188, "大地": 9189, "座席": 9190, "とり@@": 9191, "セラ@@": 9192, "菜@@": 9193, "関西@@": 9194, "小泉": 9195, "レスリング": 9196, "ā@@": 9197, "log": 9198, "ハイム": 9199, "シカゴ": 9200, "ピエ@@": 9201, "生じる": 9202, "スプ@@": 9203, "ship": 9204, "Paul": 9205, "ited": 9206, "報知": 9207, "あわせ": 9208, "所持": 9209, "116": 9210, "保育": 9211, "おい": 9212, "いか@@": 9213, "待": 9214, "Cre@@": 9215, "聡": 9216, "抑え": 9217, "受信": 9218, "MO": 9219, "体系": 9220, "ベネ@@": 9221, "inc@@": 9222, "総裁": 9223, "閥": 9224, "コスト": 9225, "描き": 9226, "環@@": 9227, "慈@@": 9228, "改編": 9229, "段@@": 9230, "江戸@@": 9231, "教皇": 9232, "ヴァイ@@": 9233, "time": 9234, "日活": 9235, "昇": 9236, "休日": 9237, "OW@@": 9238, "焼き": 9239, "見解": 9240, "State": 9241, "400@@": 9242, "終戦": 9243, "王朝": 9244, "SUPER": 9245, "新曲": 9246, "駆動": 9247, "セミ@@": 9248, "復讐": 9249, "蘇": 9250, "修行": 9251, "von": 9252, "パーツ": 9253, "トニー": 9254, "エフ": 9255, "キル@@": 9256, "北米": 9257, "魔術": 9258, "ヒ・@@": 9259, "iji": 9260, ".”": 9261, "要塞": 9262, "ISO": 9263, "綾": 9264, "予約": 9265, "Blu": 9266, "ラーメン": 9267, "モーニング": 9268, "安倍": 9269, "総会": 9270, "Mer@@": 9271, "コー": 9272, "ゾン@@": 9273, "ウィー@@": 9274, "マネージャー": 9275, "軟@@": 9276, "属性": 9277, "姫路": 9278, "台車": 9279, "暴走": 9280, "59@@": 9281, "キロメートル": 9282, "就職": 9283, "察@@": 9284, "entertainment": 9285, "170": 9286, "取り入れ": 9287, "武士": 9288, "CR@@": 9289, "aka": 9290, "代わっ": 9291, "1903": 9292, "旭@@": 9293, "ダブル": 9294, "逃げ": 9295, "Nav@@": 9296, "長岡": 9297, "奇跡": 9298, "又": 9299, "1890": 9300, "報社": 9301, "ヌー@@": 9302, "バイク": 9303, "名人": 9304, "移植": 9305, "ライト@@": 9306, "戦力": 9307, "クリ": 9308, "潮@@": 9309, "町田": 9310, "回答": 9311, "梶@@": 9312, "鉱山": 9313, "従": 9314, "メス": 9315, "休み": 9316, "あゆみ": 9317, "十字@@": 9318, "秀吉": 9319, "百貨店": 9320, "敷": 9321, "リーナ": 9322, "一体": 9323, "筒": 9324, "コラボ": 9325, "Dar@@": 9326, "OP@@": 9327, "移民": 9328, "den": 9329, "淳@@": 9330, "Au@@": 9331, "いま": 9332, "キャラ@@": 9333, "無人": 9334, "成人": 9335, "周り": 9336, "work": 9337, "ウィキ@@": 9338, "簡@@": 9339, "旅団": 9340, "League": 9341, "練@@": 9342, "入院": 9343, "書誌": 9344, "弦": 9345, "ications": 9346, "ge@@": 9347, "ural": 9348, "航路": 9349, "暁": 9350, "Box": 9351, "みどり": 9352, "才能": 9353, "三菱": 9354, "通る": 9355, "トイレ": 9356, "QU@@": 9357, "トウ@@": 9358, "催@@": 9359, "降格": 9360, "田川": 9361, "数多く": 9362, "公益": 9363, "テロ@@": 9364, "瞬間": 9365, "ヴィッド・@@": 9366, "ネク@@": 9367, "まつ": 9368, "oto": 9369, "66@@": 9370, "瀬戸@@": 9371, "供用": 9372, "降": 9373, "テナ@@": 9374, "西武@@": 9375, "あら@@": 9376, "読者": 9377, "負っ": 9378, "くらい": 9379, "決議": 9380, "ator": 9381, "がっこう": 9382, "ニュージーランド": 9383, "ally": 9384, "ワンマン": 9385, "少なくとも": 9386, "ローン": 9387, "制覇": 9388, "Media": 9389, "Rem@@": 9390, "カプ@@": 9391, "双方": 9392, "プレー@@": 9393, "AB": 9394, "バカ": 9395, "役場": 9396, "bu@@": 9397, "進み": 9398, "ren": 9399, "帖": 9400, "マスク": 9401, "Company": 9402, "実家": 9403, "乗客": 9404, "長女": 9405, "出会っ": 9406, "りつ": 9407, "すぎる": 9408, "そば": 9409, "Oxford": 9410, "スキル": 9411, "幸せ": 9412, "聖堂": 9413, "GE": 9414, "腹@@": 9415, "岬": 9416, "в": 9417, "一連": 9418, "イヤ@@": 9419, "鐘": 9420, "涼@@": 9421, "びる": 9422, "awa": 9423, "独占": 9424, "詰め": 9425, "握": 9426, "定着": 9427, "114@@": 9428, "奨": 9429, "ze": 9430, "きん": 9431, "在位": 9432, "ランプ": 9433, "ISTAT": 9434, "June": 9435, "違っ": 9436, "送る": 9437, "行事": 9438, "rary": 9439, "裂": 9440, "猛": 9441, "しれ": 9442, "偽": 9443, "蘇@@": 9444, "紛争": 9445, "高崎": 9446, "BR@@": 9447, "ハラ": 9448, "Night": 9449, "逃亡": 9450, "空襲": 9451, "帆": 9452, "du": 9453, "_@@": 9454, "知り@@": 9455, "変遷": 9456, "去っ": 9457, "Sports": 9458, "フィン": 9459, "溝": 9460, "前線": 9461, "奉行": 9462, "菩@@": 9463, "寄": 9464, "トヨタ": 9465, "戦場": 9466, "サイクル": 9467, "List": 9468, "ert": 9469, "登山": 9470, "勇者": 9471, "119": 9472, "サ・@@": 9473, "例外": 9474, "東芝": 9475, "籠": 9476, "けど": 9477, "MF": 9478, "リン・@@": 9479, "家康": 9480, "ウン": 9481, "適": 9482, "また@@": 9483, "星野": 9484, "大山": 9485, "イスラ@@": 9486, "ウラ@@": 9487, "ただ@@": 9488, "創作": 9489, "吉野": 9490, "jap@@": 9491, "テープ": 9492, "ular": 9493, "100@@": 9494, "繊@@": 9495, "ori@@": 9496, "おも@@": 9497, "netkeiba": 9498, "ゅ": 9499, "UM": 9500, "スーツ": 9501, "ウンド": 9502, "テーション": 9503, "book": 9504, "*@@": 9505, "usi@@": 9506, "文化放送": 9507, "どん": 9508, "羊": 9509, "実用": 9510, "Yahoo": 9511, "水素": 9512, "式典": 9513, "救助": 9514, "マサ@@": 9515, "懐@@": 9516, "山岳": 9517, "主任": 9518, "署名": 9519, "鍛@@": 9520, "気に@@": 9521, "防災": 9522, "For": 9523, "美人": 9524, "恵子": 9525, "reg@@": 9526, "致@@": 9527, "共編": 9528, "敷@@": 9529, "地方@@": 9530, "山中": 9531, "Rom@@": 9532, "おき": 9533, "ともに": 9534, "特番": 9535, "製薬": 9536, "GS": 9537, "上級": 9538, "浦和": 9539, "丸山": 9540, "示唆": 9541, "伊東": 9542, "企@@": 9543, "full": 9544, "itch": 9545, "司教": 9546, "図る": 9547, "決める": 9548, "olog@@": 9549, "近郊": 9550, "ビー・@@": 9551, "テイメント": 9552, "クリス": 9553, "療@@": 9554, "味方": 9555, "ビーム": 9556, "ode": 9557, "れん": 9558, "厳しい": 9559, "先頭": 9560, "基盤": 9561, "医学部": 9562, "修道院": 9563, "マリ": 9564, "放送@@": 9565, "めて": 9566, "芽": 9567, "フレーム": 9568, "ゲル@@": 9569, "学位": 9570, "β": 9571, "難しい": 9572, "シリア": 9573, "プラン": 9574, "ister": 9575, "確率": 9576, "か所": 9577, "1901": 9578, "衛@@": 9579, "脱": 9580, "UL@@": 9581, "診療": 9582, "八王子": 9583, "に際して": 9584, "近世": 9585, "123": 9586, "usiness": 9587, "不満": 9588, "ハム@@": 9589, "ナショナル": 9590, "チー@@": 9591, "奪わ": 9592, "存続": 9593, "派生": 9594, "送り@@": 9595, "端@@": 9596, "ACE": 9597, "一貫": 9598, "封印": 9599, "抱え": 9600, "Ze@@": 9601, "鉱": 9602, "依@@": 9603, "釜@@": 9604, "動力": 9605, "コウ@@": 9606, "湿@@": 9607, "Vo@@": 9608, "亡く@@": 9609, "損傷": 9610, "北方": 9611, "抑@@": 9612, "ブリ": 9613, "並行": 9614, "蛇": 9615, "ニオン": 9616, "Er@@": 9617, "ミラー": 9618, "腰": 9619, "Del@@": 9620, "ury": 9621, "ソニー・@@": 9622, "当地": 9623, "sel@@": 9624, "キーボード": 9625, "オールスター": 9626, "ップス": 9627, "ll": 9628, "ファミ": 9629, "フュー@@": 9630, "900": 9631, "aki": 9632, "ファル@@": 9633, "わたし": 9634, "為@@": 9635, "架": 9636, "鑑": 9637, "カラオケ": 9638, "コンテ": 9639, "動員": 9640, "&@@": 9641, "ail": 9642, "ham": 9643, "ピンク": 9644, "プレミア": 9645, "128": 9646, "毛利": 9647, "救急": 9648, "า@@": 9649, "池袋": 9650, "かみ": 9651, "於@@": 9652, "維": 9653, "モノ": 9654, "プレート": 9655, "ュル@@": 9656, "ร@@": 9657, "打者": 9658, "Mal@@": 9659, "118": 9660, "体操": 9661, "固有": 9662, "鹿島": 9663, "Tur@@": 9664, "既@@": 9665, "努力": 9666, "トン・@@": 9667, "レジ@@": 9668, "艦艇": 9669, "エッ@@": 9670, "ショット": 9671, "うる": 9672, "獅@@": 9673, "ser@@": 9674, "KO@@": 9675, "IDE": 9676, "苦手": 9677, "メカ@@": 9678, "独特": 9679, "はるか": 9680, "評し": 9681, "話す": 9682, "言える": 9683, "キスタン": 9684, "TA@@": 9685, "キム": 9686, "タンパク質": 9687, "木下": 9688, "コミュニケーション": 9689, "入り@@": 9690, "ユナイテッド": 9691, "事項": 9692, "兼任": 9693, "October": 9694, "まっ@@": 9695, "貝": 9696, "歯科": 9697, "勢@@": 9698, "海戦": 9699, "ap": 9700, "ety": 9701, "商人": 9702, "市議会": 9703, "1904": 9704, "やすく": 9705, "需要": 9706, "ドラえもん": 9707, "品川": 9708, "ex": 9709, "猿": 9710, "ike": 9711, "シェル": 9712, "剛@@": 9713, "鼻": 9714, "置き": 9715, "コンピュー@@": 9716, "ライズ": 9717, "First": 9718, "高野": 9719, "国外": 9720, "モリ@@": 9721, "現行": 9722, "例@@": 9723, "太字": 9724, "章@@": 9725, "匹": 9726, "SC@@": 9727, "ux": 9728, "遺体": 9729, "ねん": 9730, "July": 9731, "流し": 9732, "VER": 9733, "配布": 9734, "豆@@": 9735, "ade": 9736, "傍@@": 9737, "符": 9738, "変わり": 9739, "ao": 9740, "正面": 9741, "取扱": 9742, "構内": 9743, "une": 9744, "アル・@@": 9745, "しかしながら": 9746, "ドクター": 9747, "遊び": 9748, "えん": 9749, "ミック": 9750, "聞": 9751, "透": 9752, "PU": 9753, "ッセル": 9754, "荒川": 9755, "説得": 9756, "RPG": 9757, "パール": 9758, "佐伯": 9759, "ロール": 9760, "黄色": 9761, "シネマ": 9762, "パネル": 9763, "ダウンロード": 9764, "なみ": 9765, "皇后": 9766, "ен@@": 9767, "アソシ@@": 9768, "岐@@": 9769, "タイヤ": 9770, "パワー@@": 9771, "救出": 9772, "世界中": 9773, "奏者": 9774, "ドウ": 9775, "援@@": 9776, "外伝": 9777, "1896": 9778, "char@@": 9779, "上場": 9780, "当局": 9781, "艦@@": 9782, "振る@@": 9783, "Christ@@": 9784, "System": 9785, "UN": 9786, "主導": 9787, "ポーター": 9788, "MB": 9789, "モー": 9790, "out@@": 9791, "毅": 9792, "認める": 9793, "Wor@@": 9794, "ップ・@@": 9795, "JBIS": 9796, "やめ": 9797, "なん": 9798, "水上": 9799, "雀": 9800, "STYLE": 9801, "tionary": 9802, "Group": 9803, "少数": 9804, "通し": 9805, "ひと": 9806, "佑": 9807, "制服": 9808, "虚@@": 9809, "Retrieved": 9810, "インタ@@": 9811, "山川": 9812, "Part": 9813, "ou": 9814, "Records": 9815, "32@@": 9816, "that": 9817, "出土": 9818, "掲げ": 9819, "慢": 9820, "CK": 9821, "ston": 9822, "不正": 9823, "怪我": 9824, "浴": 9825, "ウェル": 9826, "松原": 9827, "マイナー": 9828, "201": 9829, "構@@": 9830, "Day": 9831, "加わっ": 9832, "エスト@@": 9833, "突": 9834, "ストーン": 9835, "仕え": 9836, "Kar@@": 9837, "124": 9838, "122": 9839, "ces": 9840, "Film": 9841, "山内": 9842, "国籍": 9843, "タイガース": 9844, "August": 9845, "環状": 9846, "測": 9847, "無かっ": 9848, "キャプテン": 9849, "細川": 9850, "ソニック": 9851, "ble": 9852, "交点": 9853, "旅客鉄道": 9854, "ポンド": 9855, "ute": 9856, "重複": 9857, "歌劇": 9858, "提示": 9859, "1897": 9860, "Le": 9861, "iv": 9862, "ジャーナリスト": 9863, "online": 9864, "膨@@": 9865, "1902": 9866, "style": 9867, "新報": 9868, "Champ@@": 9869, "メイド": 9870, "薩摩": 9871, "中央公@@": 9872, "示@@": 9873, "School": 9874, "憧れ": 9875, "アトラン@@": 9876, "生存": 9877, "召@@": 9878, "応募": 9879, "渉": 9880, "大切": 9881, "Plan@@": 9882, "ults": 9883, "さき": 9884, "前回": 9885, "郊外": 9886, "砦": 9887, "感覚": 9888, "セックス": 9889, "ヴァー": 9890, "⇒": 9891, "angu@@": 9892, "典@@": 9893, "互い": 9894, "vol@@": 9895, "乃木坂": 9896, "1500": 9897, "興業": 9898, "防ぐ": 9899, "吐@@": 9900, "辞令": 9901, "デレ@@": 9902, "趙": 9903, "360": 9904, "メディア@@": 9905, "ゴ・@@": 9906, "認知": 9907, "ッカ@@": 9908, "張り": 9909, "JA": 9910, "無し": 9911, "オプション": 9912, ".（": 9913, "賭@@": 9914, "策@@": 9915, "稀": 9916, "名鉄": 9917, "ステップ": 9918, "千代田": 9919, "次いで": 9920, "同僚": 9921, "出張所": 9922, "非難": 9923, "ei": 9924, "ぽ@@": 9925, "いろ": 9926, "Volume": 9927, "チェンジ": 9928, "番台": 9929, "棋@@": 9930, "瑠@@": 9931, "甲斐": 9932, "ドライ@@": 9933, "楊@@": 9934, "吹替": 9935, "並ん": 9936, "操": 9937, "飛行機": 9938, "他人": 9939, "出産": 9940, "ボイス": 9941, "太陽@@": 9942, "ダービー": 9943, "かわ@@": 9944, "手掛け": 9945, "合わ@@": 9946, "オレンジ": 9947, "Cap@@": 9948, "アタ@@": 9949, "荷@@": 9950, "てん": 9951, "歓@@": 9952, "近隣": 9953, "折り@@": 9954, "消防@@": 9955, "提唱": 9956, "人権": 9957, "78@@": 9958, "伏@@": 9959, "Is": 9960, "ペア": 9961, "鼓": 9962, "軍隊": 9963, "ote": 9964, "ROCK": 9965, "UFC": 9966, "キリスト@@": 9967, "縁@@": 9968, "降り": 9969, "比例": 9970, "豊か": 9971, "カム@@": 9972, "楽団": 9973, "Super@@": 9974, "田辺": 9975, "VR": 9976, "ero": 9977, "マット": 9978, "ウェイ@@": 9979, "幕末": 9980, "Serv@@": 9981, "コンビ@@": 9982, "post": 9983, "sian": 9984, "コロ": 9985, "れい": 9986, "ジョーンズ": 9987, "くら": 9988, "September": 9989, "bc": 9990, "Bir@@": 9991, "コーヒー": 9992, "Bel@@": 9993, "亡": 9994, "マ・@@": 9995, "あく@@": 9996, "中田": 9997, "迎える": 9998, "水泳": 9999, "上杉": 10000, "反発": 10001, "メル": 10002, "学名": 10003, "はる": 10004, "ピング": 10005, "ユーロ": 10006, "ナン": 10007, "メタ@@": 10008, "蹴@@": 10009, "督": 10010, "ラス@@": 10011, "識@@": 10012, "切る": 10013, "⁡": 10014, "パクト": 10015, "wor@@": 10016, "絶滅": 10017, "撤@@": 10018, "セルビア": 10019, "主題": 10020, "圧力": 10021, "レンタル": 10022, "刑@@": 10023, "首位": 10024, "放つ": 10025, "楼": 10026, "ation@@": 10027, "艦船": 10028, "女学校": 10029, "ミュン@@": 10030, "降伏": 10031, "症@@": 10032, "枚@@": 10033, "ez": 10034, "水産": 10035, "載@@": 10036, "エドワード": 10037, "浜田": 10038, "inf@@": 10039, "raph@@": 10040, "限界": 10041, "汽@@": 10042, "コンクリート": 10043, "川上": 10044, "オーディ@@": 10045, "ノール": 10046, "Mr": 10047, "捕虜": 10048, "インテ@@": 10049, "変える": 10050, "FE": 10051, "orl@@": 10052, "Red": 10053, "イラク": 10054, "117@@": 10055, "マキ@@": 10056, "スティック": 10057, "ign@@": 10058, "Go": 10059, "!”.": 10060, "本田": 10061, "刊@@": 10062, "ガイド@@": 10063, "バレー": 10064, "室町": 10065, "Nat@@": 10066, "大衆": 10067, "テクノ@@": 10068, "国防": 10069, "西口": 10070, "トレーニング": 10071, "スズ@@": 10072, "テキサス": 10073, "前日": 10074, "とても": 10075, "ress": 10076, "削除": 10077, "逢@@": 10078, "レーダー": 10079, "民営": 10080, "Gl@@": 10081, "数値": 10082, "ko": 10083, "ella": 10084, "car@@": 10085, "下し": 10086, "comm@@": 10087, "放射@@": 10088, "たって": 10089, "ry@@": 10090, "卓@@": 10091, "跳@@": 10092, "°": 10093, "すけ": 10094, "アラブ": 10095, "els": 10096, "空手": 10097, "ニッポン放送": 10098, "ほん": 10099, "インター": 10100, "Data": 10101, "もらっ": 10102, "出雲": 10103, "錦": 10104, "教養": 10105, "Blue": 10106, "HS": 10107, "目撃": 10108, "近江": 10109, "補給": 10110, "拝@@": 10111, "ティン@@": 10112, "硫@@": 10113, "変動": 10114, "ボート": 10115, "めぐる": 10116, "127": 10117, "vis@@": 10118, "Fri@@": 10119, "観音": 10120, "天国": 10121, "フリードリ@@": 10122, "財": 10123, "コントロール": 10124, "ヤード": 10125, "ダイヤモンド": 10126, "NCID": 10127, "もし": 10128, "焦@@": 10129, "偶然": 10130, "熊谷": 10131, "つか": 10132, "総長": 10133, "車庫": 10134, "欠": 10135, "回想": 10136, "ピア@@": 10137, "検定": 10138, "心臓": 10139, "入場": 10140, "ヒル@@": 10141, "頑@@": 10142, "George": 10143, "オーバー@@": 10144, "Sur@@": 10145, "東急": 10146, "Dep@@": 10147, "述@@": 10148, "land@@": 10149, "尼@@": 10150, "ブリッジ": 10151, "要因": 10152, "正規": 10153, "季節": 10154, "キリ@@": 10155, "ij@@": 10156, "桐": 10157, "ライオン": 10158, "牟@@": 10159, "若干": 10160, "サブ@@": 10161, "フィ": 10162, "エラ": 10163, "ルーマニア": 10164, "マンション": 10165, "亮@@": 10166, "なう": 10167, "DAY": 10168, "立川": 10169, "定員": 10170, "裁@@": 10171, "碁": 10172, "海峡": 10173, "ラブ@@": 10174, "イリ@@": 10175, "スキ": 10176, "アナログ": 10177, "ヤマト": 10178, "東海道": 10179, "っきり": 10180, "ь@@": 10181, "承@@": 10182, "ソフトバンク": 10183, "数々": 10184, "-）": 10185, "樽": 10186, "×@@": 10187, "関わっ": 10188, "負": 10189, "Ev@@": 10190, "シド@@": 10191, "ネット@@": 10192, "妖@@": 10193, "グレード": 10194, "Ob@@": 10195, "横断": 10196, "繁殖": 10197, "開放": 10198, "大相撲": 10199, "蒼": 10200, "召喚": 10201, "軍艦": 10202, "逃げ@@": 10203, "スカウト": 10204, "聞く": 10205, "勃発": 10206, "ギャラリー": 10207, "姫@@": 10208, "Thomas": 10209, "）.": 10210, ")}": 10211, "UK": 10212, "視点": 10213, "後ろ": 10214, "騎": 10215, "西川": 10216, "ene": 10217, "Institute": 10218, "仕掛け": 10219, "inger": 10220, "まと@@": 10221, "癌": 10222, "縦": 10223, "1898": 10224, "電機": 10225, "Game": 10226, "fr": 10227, "迎@@": 10228, "サークル": 10229, "偉@@": 10230, "やる": 10231, "ジュー@@": 10232, "LINE": 10233, "キャッチ": 10234, "大好き": 10235, "出店": 10236, "まんが": 10237, "選ぶ": 10238, "ケイ": 10239, "ution": 10240, "リアス": 10241, "謝罪": 10242, "PI@@": 10243, "ジョンソン": 10244, "苑": 10245, "res": 10246, "138": 10247, "阻止": 10248, "八幡@@": 10249, "困@@": 10250, "BI@@": 10251, "講": 10252, "保育園": 10253, "Site": 10254, "とく": 10255, "いえる": 10256, "第一@@": 10257, "December": 10258, "デア": 10259, "ヴェン@@": 10260, "エイト": 10261, "脳@@": 10262, "ガール@@": 10263, "侵@@": 10264, "duction": 10265, "行列": 10266, "Disco@@": 10267, "エンス": 10268, "131": 10269, "ヒロ@@": 10270, "erg@@": 10271, "ガーデン": 10272, "慶長": 10273, "春日": 10274, "MAR@@": 10275, "村山": 10276, "少佐": 10277, "chan@@": 10278, "VA": 10279, "グレイ@@": 10280, "結び": 10281, "Research": 10282, "ニ・@@": 10283, "栄養": 10284, "定数": 10285, "神戸@@": 10286, "チーム@@": 10287, ")(": 10288, "階@@": 10289, "柏": 10290, "酵素": 10291, "oes": 10292, "予": 10293, "り替え": 10294, "伏": 10295, "絞@@": 10296, "寸@@": 10297, "中断": 10298, "総称": 10299, "ギー@@": 10300, "延伸": 10301, "asahi": 10302, "管区": 10303, "evelop@@": 10304, "がら": 10305, "掌": 10306, "忍者": 10307, "自由@@": 10308, "ショート": 10309, "くま": 10310, "買": 10311, "AY": 10312, "マネジメント": 10313, "メガ": 10314, "梅田": 10315, "鳴": 10316, "其@@": 10317, "ぱい": 10318, "ブーム": 10319, "天体": 10320, "尿": 10321, "斜": 10322, "奴": 10323, "都合": 10324, "ration": 10325, "取り付け": 10326, "ザーズ": 10327, "関わる": 10328, "Gal@@": 10329, "講義": 10330, "削減": 10331, "プロセス": 10332, "エー": 10333, "入賞": 10334, "包": 10335, "Techn@@": 10336, "車内": 10337, "旧制": 10338, "三井": 10339, "カップリング": 10340, "エンジェ@@": 10341, "岩崎": 10342, "町内": 10343, "一旦": 10344, "America": 10345, "メタル": 10346, "卒@@": 10347, "おか": 10348, "ガリ@@": 10349, "セッ@@": 10350, "同人": 10351, "リポーター": 10352, "ゼル": 10353, "トゥー@@": 10354, "グラウンド": 10355, "NEX@@": 10356, "本土": 10357, "ッグ@@": 10358, "ライダー@@": 10359, "腸": 10360, "des@@": 10361, "Bibcode": 10362, "介護": 10363, "ye": 10364, "ローラ": 10365, "Up": 10366, "DF": 10367, "low@@": 10368, "つな@@": 10369, "Team": 10370, "Rol@@": 10371, "tter": 10372, "GI": 10373, "ポリス": 10374, "斐@@": 10375, "通貨": 10376, "オン・@@": 10377, "カミ@@": 10378, "大尉": 10379, "テリー": 10380, "バート": 10381, "行き@@": 10382, "一帯": 10383, "ドコ@@": 10384, "旋": 10385, "リゾート": 10386, "English": 10387, "edu": 10388, "自動@@": 10389, "Bri@@": 10390, "WORLD": 10391, "サンデー": 10392, "秋山": 10393, "ubl@@": 10394, "上京": 10395, "偵察": 10396, "バナ@@": 10397, "着陸": 10398, "unc@@": 10399, "!?@@": 10400, "ico": 10401, "ヘッド@@": 10402, "ジャイアンツ": 10403, "宮殿": 10404, "前方": 10405, "答@@": 10406, "赤坂": 10407, "yth@@": 10408, "船団": 10409, "婦人": 10410, "倒す": 10411, "イスラム": 10412, "検出": 10413, "チャンピオン@@": 10414, "ローマ@@": 10415, "不安": 10416, "転じ": 10417, "飼育": 10418, "Dr": 10419, "京都大": 10420, "uman": 10421, "貝@@": 10422, "羅@@": 10423, "初演": 10424, "データ@@": 10425, "PRE@@": 10426, "ull": 10427, "低く": 10428, "ash": 10429, "ew": 10430, "魚雷": 10431, "row": 10432, "改めて": 10433, "クラウ@@": 10434, "樋@@": 10435, "保管": 10436, "スライ@@": 10437, "Tokyo": 10438, "債": 10439, "無効": 10440, "134": 10441, "陶@@": 10442, "レル": 10443, "sub@@": 10444, "現状": 10445, "133": 10446, "いつ@@": 10447, "Si@@": 10448, "松浦": 10449, "erson": 10450, "展望": 10451, "藤沢": 10452, "ギル@@": 10453, "132": 10454, "瓶": 10455, "菊": 10456, "卓球": 10457, "─": 10458, "サウンドトラック": 10459, "伸び": 10460, "選考": 10461, "表し": 10462, "修復": 10463, "落選": 10464, "1016": 10465, "最中": 10466, "spec@@": 10467, "野生": 10468, "350": 10469, "麻雀": 10470, "絡@@": 10471, "bor@@": 10472, "関わら": 10473, "次に": 10474, "テナ": 10475, "駿@@": 10476, "Cambridge": 10477, "スポーツニッポン": 10478, "工藤": 10479, "ミー・@@": 10480, "Don@@": 10481, "掛ける": 10482, "行なっ": 10483, "排除": 10484, "茎": 10485, "密度": 10486, "質量": 10487, "137": 10488, "イカ": 10489, "権限": 10490, "Hear@@": 10491, "村田": 10492, "MP": 10493, "ы@@": 10494, "急速": 10495, "駐在": 10496, "ini": 10497, "占める": 10498, "Black": 10499, "容量": 10500, "マジック": 10501, "後輩": 10502, "電池": 10503, "プロー@@": 10504, "河野": 10505, "ther": 10506, "isch@@": 10507, "フジ@@": 10508, "スポット": 10509, "俣": 10510, "きり": 10511, "支所": 10512, "エミ@@": 10513, "戸田": 10514, "VO@@": 10515, "ums": 10516, "Sci@@": 10517, "ウ・@@": 10518, "漏@@": 10519, "播@@": 10520, "上流": 10521, "無限": 10522, "接し": 10523, "box": 10524, "縦@@": 10525, "賛@@": 10526, "ニカ": 10527, "House": 10528, "巻き込ま": 10529, "高等学校": 10530, "たけ": 10531, "変わら": 10532, "肖像": 10533, "打ち上げ": 10534, "揺@@": 10535, "消": 10536, "錦@@": 10537, "ヨン@@": 10538, "理想": 10539, "ram": 10540, "Ben@@": 10541, "ful": 10542, "幡": 10543, "ody": 10544, "靖@@": 10545, "アビ@@": 10546, "ポップ": 10547, "乙": 10548, "So@@": 10549, "指し": 10550, "夫妻": 10551, "警戒": 10552, "階段": 10553, "November": 10554, "対談": 10555, "Book": 10556, "不能": 10557, "プラン@@": 10558, "der@@": 10559, "覚え": 10560, "翌@@": 10561, "Je@@": 10562, "144": 10563, "On@@": 10564, "watch": 10565, "EL@@": 10566, "麦": 10567, "陥@@": 10568, "手がけ": 10569, "肌": 10570, "ファンタ@@": 10571, "lio": 10572, "84@@": 10573, "マイク": 10574, "破っ": 10575, "ジェ": 10576, "こども": 10577, "コント": 10578, "ショック": 10579, "Books": 10580, "雰囲気": 10581, "太夫": 10582, "sci@@": 10583, "忍@@": 10584, "strum@@": 10585, "本当に": 10586, "っかり": 10587, "渕": 10588, "原理": 10589, "iel@@": 10590, "mag@@": 10591, "ナー・@@": 10592, "乗せ": 10593, "混合": 10594, "阻@@": 10595, "湘南": 10596, "NASA": 10597, "Wom@@": 10598, "部員": 10599, "任期": 10600, "法令": 10601, "千代": 10602, "績": 10603, "絵本": 10604, "移": 10605, "セントラ@@": 10606, "クリスタ@@": 10607, "トヨタ@@": 10608, "栗": 10609, "附": 10610, "殿@@": 10611, "所長": 10612, "反映": 10613, "ゆう@@": 10614, "serv@@": 10615, "役所": 10616, "通じ": 10617, "CON@@": 10618, "効@@": 10619, "松尾": 10620, "漁業": 10621, "鍋": 10622, "ツール": 10623, "К@@": 10624, "プリキュ@@": 10625, "縮小": 10626, "被告": 10627, "太平洋戦争": 10628, "奨励": 10629, "全身": 10630, "Pres@@": 10631, "探検": 10632, "ological": 10633, "カリ": 10634, "代行": 10635, "ames": 10636, "ab": 10637, "レディ@@": 10638, "Special": 10639, "山城": 10640, "候@@": 10641, "Acc@@": 10642, "八戸": 10643, "129": 10644, "ドナルド": 10645, "ITE": 10646, "ube": 10647, "剥@@": 10648, "売り@@": 10649, "フォーク": 10650, "牧野": 10651, "ミット": 10652, "エリザベス": 10653, "Sil@@": 10654, "定める": 10655, "萌": 10656, "持ち主": 10657, "木曜日": 10658, "村立": 10659, "アントニ@@": 10660, "FL@@": 10661, "境内": 10662, "小さく": 10663, "金庫": 10664, "被災": 10665, "麓": 10666, "マニュ@@": 10667, "ヴァイオリン": 10668, "叫@@": 10669, "CR": 10670, "アニア": 10671, "Dic@@": 10672, "扱っ": 10673, "フェ": 10674, "金メダル": 10675, "Lu@@": 10676, "予告": 10677, "革": 10678, "ちなん": 10679, "監査": 10680, "槍": 10681, "仕": 10682, "委@@": 10683, "167": 10684, "モバイル": 10685, "ani@@": 10686, "emati@@": 10687, "Leg@@": 10688, "管弦楽": 10689, "ハル": 10690, "レーザー": 10691, "メモリ": 10692, "日光": 10693, "モリ": 10694, "ор@@": 10695, "フォン@@": 10696, "震@@": 10697, "グラフィック": 10698, "人種": 10699, "モンテ@@": 10700, "旭川": 10701, "予測": 10702, "衡": 10703, "田原": 10704, "並ぶ": 10705, "理学": 10706, "ゴールデン@@": 10707, "ソロ@@": 10708, "リーグ@@": 10709, "オーナー": 10710, "継ぎ": 10711, "河原": 10712, "開き": 10713, "紅白": 10714, "及ぶ": 10715, "udi@@": 10716, "放出": 10717, "寄付": 10718, "前橋": 10719, "165": 10720, "Tel@@": 10721, "Fil@@": 10722, "はや": 10723, "ノミネート": 10724, "セロ@@": 10725, "統括": 10726, "勝手": 10727, "拒@@": 10728, "オンズ": 10729, "lobal": 10730, "争": 10731, "ky": 10732, "99@@": 10733, "!」（": 10734, "ドット": 10735, "謝": 10736, "畿@@": 10737, "aul@@": 10738, "文社": 10739, "死ぬ": 10740, "|@@": 10741, "揚げ": 10742, "文化庁": 10743, "響@@": 10744, "シュート": 10745, "渡る": 10746, "原案": 10747, "粘@@": 10748, "文章": 10749, "弓@@": 10750, "残": 10751, "浅野": 10752, "Bal@@": 10753, "孫@@": 10754, "ホークス": 10755, "ush@@": 10756, "1899": 10757, "190": 10758, "県知事": 10759, "援": 10760, "陽子": 10761, "伊豆": 10762, "炭素": 10763, "和泉": 10764, "踊り": 10765, "トリー@@": 10766, "バース": 10767, "攻め": 10768, "意向": 10769, "Lo@@": 10770, "蓋": 10771, "倒れ": 10772, "語ら": 10773, "日本国": 10774, "モンド": 10775, "Ep@@": 10776, "永井": 10777, "coun@@": 10778, "人材": 10779, "ソング@@": 10780, "nik@@": 10781, "126": 10782, "Direc@@": 10783, "甲府": 10784, "ほしい": 10785, "ems": 10786, "灰": 10787, "Center": 10788, "信用@@": 10789, "パス@@": 10790, "珠@@": 10791, "躍": 10792, "堅": 10793, "ket": 10794, "side": 10795, "縮@@": 10796, "無視": 10797, "律@@": 10798, "マイクロ@@": 10799, "ERS": 10800, "道館": 10801, "イノ@@": 10802, "スパイ": 10803, "04@@": 10804, "セイ": 10805, "贈": 10806, "日立": 10807, "tv": 10808, "ete": 10809, "141": 10810, "たい@@": 10811, "バランス": 10812, "DR@@": 10813, "量産": 10814, "書記": 10815, "media": 10816, "sup@@": 10817, "郷@@": 10818, "恐竜": 10819, "から@@": 10820, "抹@@": 10821, "豊富": 10822, "讃@@": 10823, "緊@@": 10824, "春日@@": 10825, "With": 10826, "Peter": 10827, "ny@@": 10828, "府中": 10829, "ファイター": 10830, "師事": 10831, "カスタ@@": 10832, "スピリ@@": 10833, "ファイト": 10834, "戦術": 10835, "長編": 10836, "直径": 10837, "回路": 10838, "集会": 10839, "Apple": 10840, "騎兵": 10841, "ミシ@@": 10842, "118@@": 10843, "コムーネ": 10844, "宿泊": 10845, "芝居": 10846, "商工": 10847, "融@@": 10848, "中華民国": 10849, "ロボ@@": 10850, "敗戦": 10851, "熊野": 10852, "∞": 10853, "Art": 10854, "駐屯": 10855, "蓄@@": 10856, "トレード": 10857, "南方": 10858, "加賀": 10859, "番線": 10860, "ミッ@@": 10861, "gan@@": 10862, "Andre@@": 10863, "静岡@@": 10864, "突入": 10865, "おく": 10866, "JRA": 10867, "頻繁": 10868, "きら@@": 10869, "毎日新聞社": 10870, "経済学部": 10871, "DD": 10872, "メダ@@": 10873, "Jon@@": 10874, "妊娠": 10875, "ET@@": 10876, "インド@@": 10877, "UB": 10878, "キッ@@": 10879, "スタンド": 10880, "半年": 10881, "ケート": 10882, "新社": 10883, "柴": 10884, "MX": 10885, "終結": 10886, "MON@@": 10887, "三田": 10888, "湊": 10889, "スイッチ": 10890, "ション・@@": 10891, "回し": 10892, "ll@@": 10893, "DX": 10894, "$": 10895, "ople": 10896, "ハイン@@": 10897, "ONLINE": 10898, "プリンセス": 10899, "新井": 10900, "令@@": 10901, "ラウ@@": 10902, "津川": 10903, "release": 10904, "Pat@@": 10905, "強調": 10906, "疫": 10907, "Video": 10908, "山地": 10909, "プレーオフ": 10910, "公爵": 10911, "BO": 10912, "cin@@": 10913, "アテ@@": 10914, "名簿": 10915, "同行": 10916, "期@@": 10917, "ヴァン・@@": 10918, "コロンビア": 10919, "医薬品": 10920, "君主": 10921, "論理": 10922, "酷": 10923, "還@@": 10924, "品種": 10925, "チョウ": 10926, "ワール": 10927, "ラマ": 10928, "チェーン": 10929, "pol@@": 10930, "丘@@": 10931, "偏@@": 10932, "ピット": 10933, "Radio": 10934, "哲也": 10935, "移っ": 10936, "China": 10937, "威力": 10938, "ool": 10939, "書く": 10940, "パンチ": 10941, "澤@@": 10942, "FIN@@": 10943, "放棄": 10944, "扶@@": 10945, "タイム@@": 10946, "モーター": 10947, "水曜日": 10948, "ral": 10949, "ベニア": 10950, "せん@@": 10951, "Pop@@": 10952, "su": 10953, "NP@@": 10954, "予防": 10955, "クイ@@": 10956, "チナ": 10957, "戻す": 10958, "ビッグ@@": 10959, "ives": 10960, "レオ": 10961, "小牧": 10962, "cs": 10963, "揚": 10964, "インディアン": 10965, "最高@@": 10966, "墜落": 10967, "65@@": 10968, "大田": 10969, "ラテン語": 10970, "女子大学": 10971, "周波数": 10972, "ずる": 10973, "NPB": 10974, "明石": 10975, "ena": 10976, "紋章": 10977, "芝@@": 10978, "presents": 10979, "鋼@@": 10980, "調理": 10981, "宇宙船": 10982, "捧@@": 10983, "ダーク": 10984, "土佐": 10985, "廃車": 10986, "銘@@": 10987, "アジ@@": 10988, "法則": 10989, "スカイ@@": 10990, "カーン": 10991, "ビス": 10992, "僧@@": 10993, "緩@@": 10994, "ep": 10995, "テス": 10996, "親子": 10997, "日テレ": 10998, "婦@@": 10999, "算@@": 11000, "悪く": 11001, "ニョ@@": 11002, "小屋": 11003, "ves": 11004, "享年": 11005, "牧場": 11006, "February": 11007, "Post": 11008, "サウルス": 11009, "主役": 11010, "デュー@@": 11011, "GM": 11012, "メトロ": 11013, "From": 11014, "aus@@": 11015, "ミネ@@": 11016, "デル・@@": 11017, "カップ@@": 11018, "Richard": 11019, "リティー": 11020, "～（": 11021, "155": 11022, "談@@": 11023, "翔@@": 11024, "Daily": 11025, "松岡": 11026, "撃破": 11027, "裸": 11028, "もらう": 11029, "疎@@": 11030, "家督": 11031, "昆虫": 11032, "リラ": 11033, "las": 11034, "チェ": 11035, "限@@": 11036, "特設": 11037, "なく@@": 11038, "ピック": 11039, "完結": 11040, "こく": 11041, "ノフ": 11042, "刈@@": 11043, "改装": 11044, "救援": 11045, "ロッテ": 11046, "佐世保": 11047, "健一": 11048, "尾崎": 11049, "区立": 11050, "朗読": 11051, "爪": 11052, "アラン": 11053, "制し": 11054, "征服": 11055, "守り": 11056, "野菜": 11057, "こだ@@": 11058, "哀@@": 11059, "Hen@@": 11060, "放射": 11061, "大韓民国": 11062, "船橋": 11063, "吹き@@": 11064, "にわたり": 11065, "03@@": 11066, "行なわ": 11067, "朴": 11068, "辞": 11069, "訂": 11070, "時事@@": 11071, "但し": 11072, "いろ@@": 11073, "列@@": 11074, "会津": 11075, "Microsoft": 11076, "戯": 11077, "ミズ@@": 11078, "グラビア": 11079, "拘束": 11080, "足立": 11081, "穂@@": 11082, "エグ@@": 11083, "夕方": 11084, "免": 11085, "美女": 11086, "主流": 11087, "ドー": 11088, "ネス@@": 11089, "Elect@@": 11090, "モニー": 11091, "ガム": 11092, "アベ@@": 11093, "Sel@@": 11094, "流域": 11095, "ライヴ": 11096, "直樹": 11097, "殿堂": 11098, "ストップ": 11099, "ヴェー@@": 11100, "gs": 11101, "コラボレーション": 11102, "ч@@": 11103, "施さ": 11104, "アーサー": 11105, "劇@@": 11106, "mil@@": 11107, "202": 11108, "警察官": 11109, "嘘": 11110, "ドラマ@@": 11111, "崇@@": 11112, "国語": 11113, "』(": 11114, "平田": 11115, "遣@@": 11116, "正しい": 11117, "顕": 11118, "大森": 11119, "名乗っ": 11120, "オフィ@@": 11121, "クラス@@": 11122, "帥": 11123, "ティック": 11124, "橋梁": 11125, "役者": 11126, "双子": 11127, "プライズ": 11128, "妨害": 11129, "ズル": 11130, "夷": 11131, "プロテ@@": 11132, "Mem@@": 11133, "坪": 11134, "たく@@": 11135, "第@@": 11136, "No@@": 11137, "雑": 11138, "sec@@": 11139, "left": 11140, "ナショ@@": 11141, "Tri@@": 11142, "SI": 11143, "トランス@@": 11144, "1895": 11145, "Die": 11146, "ムーン": 11147, "おそ@@": 11148, "フェア": 11149, "はん": 11150, "郡@@": 11151, "服部": 11152, "ダイヤ@@": 11153, "戯@@": 11154, "キハ": 11155, "農民": 11156, "替わり": 11157, "前提": 11158, "異動": 11159, "Tor@@": 11160, "内外": 11161, "値@@": 11162, "ヒョ@@": 11163, "灰@@": 11164, "棄@@": 11165, "光文社": 11166, "ミナ@@": 11167, "Season": 11168, "電源": 11169, "ドリ": 11170, "オート": 11171, "師匠": 11172, "知ら@@": 11173, "FF": 11174, "ニュ": 11175, "IP@@": 11176, "sol@@": 11177, "累@@": 11178, "小田原": 11179, "ッズ": 11180, "着手": 11181, "兼ね": 11182, "ace@@": 11183, "隈": 11184, "マーケ@@": 11185, "tit@@": 11186, "パロ@@": 11187, "帰り": 11188, "浅草": 11189, "しめ": 11190, "ルネ@@": 11191, "マリー@@": 11192, "挨拶": 11193, "燕": 11194, "air": 11195, "67@@": 11196, "いた@@": 11197, "否": 11198, "RC": 11199, "墓地": 11200, "ペイ@@": 11201, "IV@@": 11202, "売り上げ": 11203, "ハード@@": 11204, "倒さ": 11205, "Football": 11206, "思い出": 11207, "ESPN": 11208, "黒人": 11209, "ポジ@@": 11210, "センチ@@": 11211, "ゆかり": 11212, "Ir@@": 11213, "皮膚": 11214, "met@@": 11215, "臺@@": 11216, "智子": 11217, "天保": 11218, "遭遇": 11219, "耕": 11220, "弱い": 11221, "ih@@": 11222, "那覇": 11223, "中等": 11224, "王位": 11225, "ボーン": 11226, "クイーン": 11227, "にあたり": 11228, "ハヤ@@": 11229, "挙げる": 11230, "川島": 11231, "ボリ@@": 11232, "テール": 11233, "亡命": 11234, "OR": 11235, "Doc@@": 11236, "切ら": 11237, "シオン": 11238, "６": 11239, "窟": 11240, "叙任": 11241, "95@@": 11242, "スタント": 11243, "呼@@": 11244, "苗": 11245, "新版": 11246, "剰": 11247, "ソル": 11248, "フォース": 11249, "珍@@": 11250, "喧嘩": 11251, "互いに": 11252, "ext": 11253, "殴@@": 11254, "大井": 11255, "隅": 11256, "藍": 11257, "OVA": 11258, "red": 11259, "ぶん": 11260, "満州": 11261, "業績": 11262, "相模@@": 11263, "潰@@": 11264, "オフ@@": 11265, "オスマン": 11266, "倉庫": 11267, "ats": 11268, "道場": 11269, "遂げ": 11270, "ずっと": 11271, "ふたり": 11272, "エンターテインメント": 11273, "借り": 11274, "根拠": 11275, "地質": 11276, "予報": 11277, "BD": 11278, "職人": 11279, "ato": 11280, "法案": 11281, "Publishing": 11282, "南アフリカ": 11283, "賊": 11284, "タム": 11285, "Ju@@": 11286, "ゆえ": 11287, "したがって": 11288, "Gi@@": 11289, "刑務所": 11290, "歌舞伎": 11291, "エロ": 11292, "外れ": 11293, "プリント": 11294, "食堂": 11295, "尺": 11296, "場@@": 11297, "－@@": 11298, "WH@@": 11299, "狂": 11300, "ユニバーサル": 11301, "気筒": 11302, "谷口": 11303, "アウト@@": 11304, "京王": 11305, "発覚": 11306, "阪神@@": 11307, "ENT": 11308, "シグ@@": 11309, "天下": 11310, "戦記": 11311, "もら@@": 11312, "天文学": 11313, "廣": 11314, "帰": 11315, "ワールド@@": 11316, "Enter@@": 11317, "なに": 11318, "ó@@": 11319, "國@@": 11320, "和子": 11321, "豪華": 11322, "ille": 11323, "西経": 11324, "ギュ@@": 11325, "Tre@@": 11326, "接する": 11327, "藤本": 11328, "広瀬": 11329, "YOU": 11330, "kn@@": 11331, "/.": 11332, "猛@@": 11333, "とめ": 11334, "А@@": 11335, "度々": 11336, "別に": 11337, "ag": 11338, "きれ": 11339, "緑色": 11340, "TE": 11341, "インスト@@": 11342, "バット": 11343, "中原": 11344, "堅@@": 11345, "μ": 11346, "共産": 11347, "Academ@@": 11348, "駐@@": 11349, "日本一": 11350, "SON@@": 11351, "EL": 11352, "種目": 11353, "コンサル@@": 11354, "発信": 11355, "IX": 11356, "ライオンズ": 11357, "近づ@@": 11358, "Magazine": 11359, "任じ": 11360, "セリ@@": 11361, "Series": 11362, "台詞": 11363, "飛行場": 11364, "歳@@": 11365, "struc@@": 11366, "僅@@": 11367, "まく": 11368, "SH": 11369, "内藤": 11370, "割合": 11371, "_{\\": 11372, "型@@": 11373, "テック": 11374, "公司": 11375, "アプリケーション": 11376, "アナウンス": 11377, "雇@@": 11378, "モンズ": 11379, "水系": 11380, "}{\\": 11381, "名乗る": 11382, "バウ@@": 11383, "bol": 11384, "もも": 11385, "オムニバス": 11386, "〜@@": 11387, "らさ": 11388, "勧め": 11389, "祀@@": 11390, "浄": 11391, "楽章": 11392, "Play@@": 11393, "死体": 11394, "沈没": 11395, "じゅ@@": 11396, "式@@": 11397, "Wrest@@": 11398, "PO@@": 11399, "シェ": 11400, "ロープ": 11401, "訪れる": 11402, "ences": 11403, "ウマ": 11404, "ポケモン": 11405, "客車": 11406, "全部": 11407, "降板": 11408, "吉川弘文館": 11409, "笑い": 11410, "刺": 11411, "巻き@@": 11412, "GB": 11413, "Por@@": 11414, "港湾": 11415, "コメディ": 11416, "いれ": 11417, "キャップ": 11418, "野口": 11419, "台北": 11420, "ication": 11421, "核@@": 11422, "東口": 11423, "拾@@": 11424, "皆": 11425, "相次@@": 11426, "Club": 11427, "曽": 11428, "釣り": 11429, "衆@@": 11430, "モーター@@": 11431, "ビリ@@": 11432, "サラ": 11433, "構え": 11434, "裂@@": 11435, "ナイ": 11436, "漫才": 11437, "White": 11438, "冬季": 11439, "チャンス": 11440, "コマンド": 11441, "CX": 11442, "グローバル": 11443, "矢野": 11444, "Math@@": 11445, "iga": 11446, "eh@@": 11447, "aly@@": 11448, "両国": 11449, "配属": 11450, "その@@": 11451, "鮮@@": 11452, "火曜日": 11453, "クレイ@@": 11454, "152": 11455, "牽引": 11456, "GIR@@": 11457, "どんな": 11458, "ora": 11459, "専属": 11460, "クシー": 11461, "コネ@@": 11462, "しろ": 11463, "らか": 11464, "TV@@": 11465, "━━@@": 11466, "かん@@": 11467, "151": 11468, "売り": 11469, "三男": 11470, "激しく": 11471, "OM": 11472, "蜂@@": 11473, "若松": 11474, "調達": 11475, "久保@@": 11476, ")）": 11477, "東大": 11478, "削": 11479, "ウェー@@": 11480, "自称": 11481, "dy": 11482, "02@@": 11483, ")：": 11484, "考案": 11485, "Information": 11486, "目黒": 11487, "スコー@@": 11488, "推移": 11489, "コナン": 11490, "ボル": 11491, "懸@@": 11492, "漂@@": 11493, "yer": 11494, "オブ・ザ・@@": 11495, "ゲイ@@": 11496, "模型": 11497, "ジョージア": 11498, "KB": 11499, "なくなっ": 11500, "アーケード": 11501, "車種": 11502, "小路": 11503, "脂@@": 11504, "賛成": 11505, "成り@@": 11506, "圧倒的": 11507, "気温": 11508, "チケット": 11509, "nih": 11510, "怖@@": 11511, "渓@@": 11512, "British": 11513, "ワーズ": 11514, "Tak@@": 11515, "シェア": 11516, "名古屋@@": 11517, "査@@": 11518, "福音": 11519, "ファクトリー": 11520, "迎": 11521, "145": 11522, "喫し": 11523, "東山": 11524, "ateg@@": 11525, "学級": 11526, "たけし": 11527, "腕@@": 11528, "Database": 11529, "奏曲": 11530, "}}\\": 11531, "スコア": 11532, "石橋": 11533, "株主": 11534, "MAX": 11535, "フェス": 11536, "建国": 11537, "じゃ@@": 11538, "mann": 11539, "น@@": 11540, "相対": 11541, "椅子": 11542, "trans@@": 11543, "Cra@@": 11544, "-」": 11545, "実在": 11546, "SL": 11547, "ジェイ": 11548, "ales": 11549, "単行": 11550, "初出": 11551, "早川": 11552, "ny": 11553, "mod@@": 11554, "郡山": 11555, "ウルトラ@@": 11556, "北村": 11557, "施工": 11558, "正解": 11559, "年報": 11560, "98@@": 11561, "Museum": 11562, "ier": 11563, "ベット": 11564, "組む": 11565, "ari": 11566, "マルチ@@": 11567, "出口": 11568, "知的": 11569, "ライナー": 11570, "ルーツ": 11571, "どれ": 11572, "ナチス": 11573, "川越": 11574, "アトラ@@": 11575, "kW": 11576, "玲@@": 11577, "私鉄": 11578, "文春": 11579, "使える": 11580, "Litt@@": 11581, "Anim@@": 11582, "住所": 11583, "What": 11584, "〒": 11585, "眼@@": 11586, "島津": 11587, "コフ": 11588, "移し": 11589, "認証": 11590, "眼鏡": 11591, "埋葬": 11592, "種族": 11593, "Blog": 11594, "幹事": 11595, "転向": 11596, "175": 11597, "侵略": 11598, "外観": 11599, "Edition": 11600, "ゲイ": 11601, "駆": 11602, "デイ": 11603, "男優": 11604, "As@@": 11605, "コミュニケーションズ": 11606, "ジャクソン": 11607, "ダード": 11608, "透明": 11609, "300@@": 11610, "緒@@": 11611, "孔": 11612, "OCLC": 11613, "history": 11614, "所収": 11615, "Batt@@": 11616, "Dig@@": 11617, ">@@": 11618, "オレ@@": 11619, "いつ": 11620, "媒": 11621, "会談": 11622, "放っ": 11623, "稼働": 11624, "ゼー@@": 11625, "ette": 11626, "では": 11627, "整数": 11628, "杉山": 11629, "youtube": 11630, "ヴィル": 11631, "BAS@@": 11632, "電化": 11633, "HT": 11634, "Р@@": 11635, "プロイセン": 11636, "方程式": 11637, "灣@@": 11638, "data": 11639, "上院": 11640, "Cr@@": 11641, "ライブラリー": 11642, "だし": 11643, "刺激": 11644, "兆": 11645, "ラン・@@": 11646, "平方": 11647, "避け": 11648, "Austral@@": 11649, "キネマ旬@@": 11650, "Hel@@": 11651, "pri@@": 11652, "BI": 11653, "瑞": 11654, "嬢": 11655, "シェイ@@": 11656, "ories": 11657, "pm@@": 11658, "経歴": 11659, "=\\": 11660, "アロ@@": 11661, "Ul@@": 11662, "ax": 11663, "圧縮": 11664, "che": 11665, "話し@@": 11666, "og": 11667, "背中": 11668, "労働省": 11669, "捜索": 11670, "King": 11671, "励@@": 11672, "こうして": 11673, "日程": 11674, "Spr@@": 11675, "セキュ@@": 11676, "観点": 11677, "コミ": 11678, "ウェブ@@": 11679, "ガニ@@": 11680, "Mel@@": 11681, "速報": 11682, "メカ": 11683, "John@@": 11684, "ization": 11685, "ナム": 11686, "Cro@@": 11687, "中京": 11688, "凍@@": 11689, "壌": 11690, "敦": 11691, "Hi@@": 11692, "弧": 11693, "告げ": 11694, "早い": 11695, "篤": 11696, "163": 11697, "エ・@@": 11698, "ヴィクト@@": 11699, "乗員": 11700, "キング・@@": 11701, "ford": 11702, "教科書": 11703, "ムシ": 11704, "ox@@": 11705, "西田": 11706, "コラム": 11707, "dl": 11708, "生態": 11709, ")」@@": 11710, "ザード": 11711, "分間": 11712, "dom": 11713, "153": 11714, "絆": 11715, "ジョ": 11716, "UT": 11717, "高架": 11718, "誇る": 11719, "舌": 11720, "めぐみ": 11721, "怒": 11722, "essed": 11723, "ベッ@@": 11724, "７": 11725, "avi@@": 11726, "Scot@@": 11727, "ards": 11728, "鑑賞": 11729, "出撃": 11730, "ヘリコプター": 11731, "保証": 11732, "化石": 11733, "靴": 11734, "ering": 11735, "ating": 11736, "やってき": 11737, "ティング@@": 11738, "[@": 11739, "個別": 11740, "陥落": 11741, "品質": 11742, "nel": 11743, "告知": 11744, "ボウ@@": 11745, "譚": 11746, "誘拐": 11747, "ボクサー": 11748, "ハロ@@": 11749, "プロト@@": 11750, "バイト": 11751, "通勤": 11752, "徳間書店": 11753, "従五位": 11754, "飛ば@@": 11755, "162": 11756, "震": 11757, "コナ@@": 11758, "sankei": 11759, "リベ@@": 11760, "手塚": 11761, "ゲット": 11762, "以": 11763, "ri": 11764, "nlm": 11765, "Swe@@": 11766, "メニュー": 11767, "ネコ": 11768, "っ子": 11769, "エッセ@@": 11770, "構": 11771, "ボストン": 11772, "Charles": 11773, "抑制": 11774, "追": 11775, "チェック": 11776, "ails": 11777, "商事": 11778, "ループ": 11779, "クリスト@@": 11780, "壊滅": 11781, "ダニエル": 11782, "インズ": 11783, "渡さ": 11784, "コル": 11785, "210": 11786, "やって@@": 11787, "始動": 11788, "ission": 11789, "好意": 11790, "overn@@": 11791, "叔父": 11792, "リス@@": 11793, "演説": 11794, "Be": 11795, "ues": 11796, "小沢": 11797, "酷@@": 11798, "リース": 11799, "拉@@": 11800, "CBC": 11801, "ユニオン": 11802, "220": 11803, "由美": 11804, "外野": 11805, "呼吸": 11806, "小田": 11807, "ラテン": 11808, "肝@@": 11809, "カイ": 11810, "毎回": 11811, "アドベンチャー": 11812, "Games": 11813, "チーフ": 11814, "横浜@@": 11815, "トロン": 11816, "近衛": 11817, "TAK@@": 11818, "フット@@": 11819, "集まっ": 11820, "ago": 11821, "PHP": 11822, "コーポレーション": 11823, "簡": 11824, "捕手": 11825, "飲食": 11826, "ер@@": 11827, "Japanese": 11828, "天神": 11829, "重力": 11830, "妖精": 11831, "三宅": 11832, "ón": 11833, "付く": 11834, "酸素": 11835, "；": 11836, "宝塚@@": 11837, "rm": 11838, "Rep@@": 11839, "JP@@": 11840, "à": 11841, "ピース": 11842, "性的": 11843, "STER": 11844, "信濃": 11845, "薬物": 11846, "det@@": 11847, "Biography": 11848, "MAN": 11849, "我々": 11850, "間隔": 11851, "アルコール": 11852, "フォーラム": 11853, "眞": 11854, "ゃ": 11855, "リアル@@": 11856, "SPEC@@": 11857, "嗣": 11858, "フレッ@@": 11859, "ews": 11860, "キラ@@": 11861, "結び@@": 11862, "die": 11863, "乾燥": 11864, "対照": 11865, "ل@@": 11866, "ジャイ@@": 11867, "life": 11868, "高岡": 11869, "グッズ": 11870, "世界@@": 11871, "ジャック・@@": 11872, "討ち": 11873, "del": 11874, "山陽": 11875, "Kor@@": 11876, "みち": 11877, "菅": 11878, "擬@@": 11879, "サンフランシスコ": 11880, "拍@@": 11881, "ホワイ@@": 11882, "was": 11883, "ブライアン": 11884, "Movie": 11885, "ncbi": 11886, "オフィシャル@@": 11887, "ブルガリア": 11888, "={\\": 11889, "富田": 11890, "ゴム": 11891, "プラットフォーム": 11892, "WN": 11893, "麗@@": 11894, "厳": 11895, "ビジュアル": 11896, "ノイ": 11897, "エンタ@@": 11898, "マレーシア": 11899, "参入": 11900, "付録": 11901, "きる": 11902, "莉@@": 11903, "立花": 11904, "格闘技": 11905, "199": 11906, "済み": 11907, "sts": 11908, "懸念": 11909, "唱": 11910, "ガソ@@": 11911, "ef@@": 11912, "大映": 11913, "交際": 11914, "1893": 11915, "交番": 11916, "砂漠": 11917, "大系": 11918, "エチ@@": 11919, "Watch": 11920, "バート・@@": 11921, "騎乗": 11922, "にくい": 11923, "!!」": 11924, "和解": 11925, "1886": 11926, "げん": 11927, "託@@": 11928, "スマ": 11929, "捉@@": 11930, "WOWOW": 11931, "ugh": 11932, "並びに": 11933, "ゲージ": 11934, "CD@@": 11935, "酸@@": 11936, "hl": 11937, "出会@@": 11938, "表題": 11939, "下関": 11940, "人格": 11941, "ギン": 11942, "均@@": 11943, "嫡@@": 11944, "bre@@": 11945, "府立": 11946, "ところが": 11947, "mer@@": 11948, "UF@@": 11949, "ぁ": 11950, "欧米": 11951, "笛": 11952, "トゥデイ": 11953, "IK@@": 11954, "向かい": 11955, "Population": 11956, "Gar@@": 11957, "判事": 11958, "担っ": 11959, "冷": 11960, "リレー": 11961, "結ば": 11962, "イベ@@": 11963, "WOR@@": 11964, "辰": 11965, "看板": 11966, "土屋": 11967, "/?": 11968, "内蔵": 11969, "津田": 11970, "煙@@": 11971, "RECOR@@": 11972, "容姿": 11973, "205": 11974, "併せ": 11975, "やはり": 11976, "年金": 11977, "1892": 11978, "掛": 11979, "ディス@@": 11980, "atch": 11981, "寒": 11982, "沈": 11983, "シュ・@@": 11984, "野川": 11985, "抜い": 11986, "花火": 11987, "景観": 11988, "TY": 11989, "由紀@@": 11990, "諭": 11991, "列島": 11992, "atal@@": 11993, "ならびに": 11994, "人組": 11995, "乗り入れ": 11996, "汁": 11997, "080@@": 11998, "INE": 11999, "家系": 12000, "囲ま": 12001, "臓": 12002, "晩年": 12003, "まる@@": 12004, "が丘": 12005, "ardian": 12006, "mathb@@": 12007, "救う": 12008, "ease": 12009, "NTV": 12010, "究@@": 12011, "辞職": 12012, "アグ@@": 12013, "週末": 12014, "let": 12015, "長距離": 12016, "奇妙": 12017, "ダンサー": 12018, "サンケイ": 12019, "追跡": 12020, "茅@@": 12021, "湾@@": 12022, "so": 12023, "付与": 12024, "みな": 12025, "rid@@": 12026, "宅@@": 12027, "カタログ": 12028, "要望": 12029, "手伝@@": 12030, "水雷": 12031, "キア": 12032, "RA": 12033, "157": 12034, "熟@@": 12035, "156": 12036, "ook": 12037, "朱@@": 12038, "陥っ": 12039, "ピアニ@@": 12040, "Air": 12041, "みれ": 12042, "笑顔": 12043, "ふく": 12044, "システ@@": 12045, "唯": 12046, "でし": 12047, "支": 12048, "世田谷": 12049, "ビジ@@": 12050, "チェスター": 12051, "失い": 12052, "日産": 12053, "春秋": 12054, "熱帯": 12055, "闘争": 12056, "aut@@": 12057, "括@@": 12058, "本木": 12059, "KBS": 12060, "スポニ@@": 12061, "ニール": 12062, "悟@@": 12063, "ルパン": 12064, "オロ@@": 12065, "Statis@@": 12066, "みなみ": 12067, "1891": 12068, "疲@@": 12069, "牡馬": 12070, "いか": 12071, "賠償": 12072, "alth": 12073, "倫理": 12074, "受章": 12075, "禅": 12076, "240": 12077, "エクスプレス": 12078, "紳@@": 12079, "bert": 12080, "司馬": 12081, "下院": 12082, "ポスター": 12083, "財務": 12084, "～」": 12085, "ラップ": 12086, "増田": 12087, ".”.": 12088, "LA": 12089, "eu@@": 12090, "吹き替え": 12091, "届け": 12092, "161": 12093, "猟": 12094, "公国": 12095, "ガ・@@": 12096, "yo": 12097, "NC@@": 12098, "ボク": 12099, "体力": 12100, "路面": 12101, "領主": 12102, "怪人": 12103, "ぺ@@": 12104, "立体": 12105, "My@@": 12106, "タナ@@": 12107, "広がっ": 12108, "ech": 12109, "FU@@": 12110, "ц@@": 12111, "%（": 12112, "ジー・@@": 12113, "宜": 12114, "ello": 12115, "のぶ": 12116, "ヒトラー": 12117, "ione": 12118, "喪失": 12119, "デリ@@": 12120, "166": 12121, "グリーン@@": 12122, "ドッ@@": 12123, "聞き": 12124, "置き換え": 12125, "Vir@@": 12126, "142": 12127, "下旬": 12128, "ORY": 12129, "1894": 12130, "ロボ": 12131, "支流": 12132, "ホリ@@": 12133, "jo@@": 12134, "シミュ@@": 12135, "貼@@": 12136, "ines": 12137, "ミリ@@": 12138, "ソル@@": 12139, "白鳥": 12140, "進める": 12141, "1868": 12142, "8000": 12143, "テーブル": 12144, "人文": 12145, "運動@@": 12146, "総覧": 12147, "毎月": 12148, "暗号": 12149, "伝わる": 12150, "eba": 12151, "同意": 12152, "LP": 12153, "ips": 12154, "傑@@": 12155, "新編": 12156, "デッキ": 12157, "ダブルス": 12158, "滑": 12159, "かた": 12160, "棋士": 12161, "八木": 12162, "アンダー@@": 12163, "謡": 12164, "Who": 12165, "ZERO": 12166, "揚@@": 12167, "窓口": 12168, "П@@": 12169, "つもり": 12170, "褒@@": 12171, "sm@@": 12172, "櫻@@": 12173, "もたらし": 12174, "指令": 12175, "奮@@": 12176, "twitter": 12177, "姉@@": 12178, "Aut@@": 12179, "ダム@@": 12180, "ан@@": 12181, "ビーチ": 12182, "杜": 12183, "倍@@": 12184, "CL": 12185, "引き継い": 12186, "vir@@": 12187, "マーガ@@": 12188, "基金": 12189, "蒸@@": 12190, "技能": 12191, "Guit@@": 12192, "学問": 12193, "諾": 12194, "BAR@@": 12195, "､": 12196, "シャツ": 12197, "Cur@@": 12198, "慎": 12199, "荷物": 12200, "チベット": 12201, "伯@@": 12202, "website": 12203, "168": 12204, "確実": 12205, "プレックス": 12206, "着い": 12207, "通信社": 12208, "フスキー": 12209, "Amazon": 12210, "立た": 12211, "塞": 12212, "この間": 12213, "投げ@@": 12214, "AJ": 12215, "箱根": 12216, "尽力": 12217, "倉敷": 12218, "ギタ@@": 12219, "FR@@": 12220, "帽@@": 12221, "天堂": 12222, "小規模": 12223, "ガラ@@": 12224, "のぼ@@": 12225, "oul@@": 12226, "gi": 12227, "カナ": 12228, "1871": 12229, "住吉": 12230, "クティ@@": 12231, "アカウント": 12232, "ストリ@@": 12233, "1884": 12234, "恒星": 12235, "長調": 12236, "商号": 12237, "電気@@": 12238, "ようやく": 12239, "停留": 12240, "宮廷": 12241, "こん@@": 12242, "off": 12243, "復元": 12244, "系譜": 12245, "SHOW": 12246, "優しい": 12247, "墜": 12248, "交差": 12249, "ski": 12250, "走り": 12251, "桂@@": 12252, "大蔵@@": 12253, "美濃": 12254, "含ん": 12255, "移り": 12256, "考え方": 12257, "Royal": 12258, "グルー@@": 12259, "渓": 12260, "最年@@": 12261, "BN": 12262, "儀式": 12263, "stro@@": 12264, "oft@@": 12265, "解禁": 12266, "ED@@": 12267, "△": 12268, "HC": 12269, "フィート": 12270, "本郷": 12271, "読ん": 12272, "143": 12273, "大公": 12274, "筆頭": 12275, "マーシャル": 12276, "根本": 12277, "83@@": 12278, "避ける": 12279, "三好": 12280, "ャ": 12281, "全般": 12282, "市街": 12283, "有馬": 12284, "促@@": 12285, "改築": 12286, "磯": 12287, "Dem@@": 12288, "次官": 12289, "キュー": 12290, "42@@": 12291, "SM": 12292, "婚約": 12293, "濃度": 12294, "バリー": 12295, "走っ": 12296, "もち": 12297, "常務": 12298, "jo": 12299, "疑い": 12300, "ext@@": 12301, "底@@": 12302, "日本海": 12303, "lag": 12304, "決算": 12305, "ki": 12306, "綴@@": 12307, "ans@@": 12308, "iro": 12309, "改題": 12310, "ton@@": 12311, "South": 12312, "NFL": 12313, "前者": 12314, "憎@@": 12315, "ani": 12316, "ラジ@@": 12317, "似@@": 12318, "St": 12319, "証@@": 12320, "ラト@@": 12321, "僚": 12322, "カレー": 12323, "蝶": 12324, "Bor@@": 12325, "バレ@@": 12326, "CP": 12327, "Anne@@": 12328, "醸@@": 12329, "sw@@": 12330, "化粧": 12331, "とき@@": 12332, "腐@@": 12333, "トランス": 12334, "index": 12335, "緩和": 12336, "出生": 12337, "滞": 12338, "有機": 12339, "定理": 12340, "エイ": 12341, "\"（": 12342, "Census": 12343, "要覧": 12344, "単語": 12345, "図っ": 12346, "BM@@": 12347, "液体": 12348, "169": 12349, "あり@@": 12350, "Cri@@": 12351, "Commun@@": 12352, "聞き@@": 12353, "ATE": 12354, "喰@@": 12355, "レシ@@": 12356, "Cla@@": 12357, "釧路": 12358, "モハ": 12359, "バイエルン": 12360, "退社": 12361, "We": 12362, "祖母": 12363, "辱": 12364, "プー@@": 12365, "poli@@": 12366, "ple": 12367, "会い": 12368, "津波": 12369, "満たす": 12370, "？@@": 12371, "靖": 12372, "筆@@": 12373, "ランス": 12374, "物資": 12375, "菅原": 12376, "務員": 12377, "ミュージアム": 12378, "148": 12379, "遼": 12380, "asp@@": 12381, "工芸": 12382, "広がる": 12383, "ボルト": 12384, "フィン@@": 12385, "保全": 12386, "むしろ": 12387, "追悼": 12388, "Story": 12389, "葬": 12390, "申@@": 12391, "がい": 12392, "開く": 12393, "1880": 12394, "髄": 12395, "ハリー": 12396, "ラム@@": 12397, "ocal": 12398, "術@@": 12399, "roid": 12400, "駅伝": 12401, "key": 12402, "チリ": 12403, "最古": 12404, "巻き": 12405, "ぐれ": 12406, "在地": 12407, "挿@@": 12408, "立地": 12409, "栖": 12410, "エージェント": 12411, "工房": 12412, "Land@@": 12413, "顧客": 12414, "部族": 12415, "ulture": 12416, "論争": 12417, "アバ@@": 12418, "配慮": 12419, "1873": 12420, "隣@@": 12421, "焼失": 12422, "プログラミング": 12423, "継ぐ": 12424, "敷設": 12425, "とう@@": 12426, "ig": 12427, "Guide": 12428, "随": 12429, "シカ": 12430, "誕": 12431, "ステル@@": 12432, "フロリダ": 12433, "山頂": 12434, "軽量": 12435, "VOL": 12436, "何らかの": 12437, "壮@@": 12438, "Ⅱ": 12439, "前面": 12440, "リントン": 12441, "酒造": 12442, "ショウ": 12443, "生年": 12444, "中退": 12445, "ロイヤル": 12446, "築い": 12447, "セカンド": 12448, "立憲": 12449, "ダー・@@": 12450, "狙っ": 12451, "SR": 12452, "時空": 12453, "恩": 12454, "潔": 12455, "volution": 12456, "寝": 12457, "しかっ": 12458, "食べ@@": 12459, "チア@@": 12460, "磐": 12461, "止める": 12462, "狭": 12463, "周期": 12464, "炎@@": 12465, "元禄": 12466, "食糧": 12467, "テ・@@": 12468, "幼児": 12469, "ナイト@@": 12470, "不可@@": 12471, "上巻": 12472, "わが": 12473, "ファッ@@": 12474, "ニック@@": 12475, "膝": 12476, "はら": 12477, "MVP": 12478, "食料": 12479, "将校": 12480, "du@@": 12481, "field": 12482, "胸@@": 12483, "醒": 12484, "襲わ": 12485, "ライブ@@": 12486, "豊橋": 12487, "ガイ": 12488, "天王": 12489, "小池": 12490, "力学": 12491, "マリー": 12492, "甥": 12493, "余儀なく": 12494, "М@@": 12495, "海兵": 12496, "IGHT": 12497, "ッシャー": 12498, "ort": 12499, "動向": 12500, "めざ@@": 12501, "県庁": 12502, "ザイ@@": 12503, "固め": 12504, "すみ": 12505, "頻@@": 12506, "（株）": 12507, "かし@@": 12508, "フード": 12509, "散歩": 12510, "隠れ": 12511, "解雇": 12512, "キー・@@": 12513, "落下": 12514, "ぼう": 12515, "革@@": 12516, "クロアチア": 12517, "Oc@@": 12518, "薄": 12519, "OFFIC@@": 12520, "フラ": 12521, "Ci@@": 12522, "その間": 12523, "杏@@": 12524, "許": 12525, "曹": 12526, "伏見": 12527, "就航": 12528, "洪@@": 12529, "丈@@": 12530, "Space": 12531, "ヒロ": 12532, "同等": 12533, "ラッシュ": 12534, "TKO": 12535, "ジョル@@": 12536, "CAST": 12537, "パシフィ@@": 12538, "Tav@@": 12539, "AF": 12540, "ステル": 12541, "アイランド": 12542, "158": 12543, "スクリ@@": 12544, "報酬": 12545, "街@@": 12546, "ディーゼル": 12547, "王立": 12548, "ゴン@@": 12549, "ered": 12550, "主宰": 12551, "Sam@@": 12552, "求@@": 12553, "一時期": 12554, "Cy@@": 12555, "ある程度": 12556, "バレン@@": 12557, "さよなら": 12558, "sum@@": 12559, "般@@": 12560, "北口": 12561, "ばら": 12562, "ç@@": 12563, "歩く": 12564, "牝馬": 12565, "istry": 12566, "SO": 12567, "昨@@": 12568, "first": 12569, "狩り": 12570, "純粋": 12571, "世話": 12572, "253": 12573, "かな": 12574, "Tit@@": 12575, "歩行": 12576, "藝": 12577, "返還": 12578, "泥@@": 12579, "ヴィルヘル@@": 12580, "詐@@": 12581, "IBM": 12582, "黙@@": 12583, "CV": 12584, "アール": 12585, "守っ": 12586, "付け@@": 12587, "mento": 12588, "珍しい": 12589, "りゅう": 12590, "ights": 12591, "フェイス": 12592, "まき": 12593, "Mark": 12594, "がし": 12595, "こん": 12596, "逃れ": 12597, "ula": 12598, "1887": 12599, "147": 12600, "パレード": 12601, "化合": 12602, "HT@@": 12603, "褐色": 12604, "ありがとう": 12605, "ワク@@": 12606, "ARD": 12607, "112@@": 12608, "154": 12609, "AFC": 12610, "sa": 12611, "心配": 12612, "スナ@@": 12613, "AST": 12614, "脇@@": 12615, "バキア": 12616, "High": 12617, "203": 12618, "下巻": 12619, "初日": 12620, "普@@": 12621, "勉": 12622, "シルバー": 12623, "麻生": 12624, "髙@@": 12625, "main@@": 12626, "lim@@": 12627, "ボブ": 12628, "公報": 12629, "ヘル": 12630, "鷹@@": 12631, "ケネ@@": 12632, "Bab@@": 12633, "スポ": 12634, "しゃ": 12635, "Tour": 12636, "もし@@": 12637, "大川": 12638, "新築": 12639, "ウェブ": 12640, "客員": 12641, "デイリースポーツ": 12642, "ヂ@@": 12643, "号車": 12644, "果実": 12645, "164": 12646, "断念": 12647, "DP": 12648, "1872": 12649, "Anniversary": 12650, "液@@": 12651, "Lim@@": 12652, "アタック": 12653, "松島": 12654, "ひな": 12655, "Park": 12656, "拳銃": 12657, "ビデ@@": 12658, "結城": 12659, "系@@": 12660, "省略": 12661, "フィラ@@": 12662, "診": 12663, "烏@@": 12664, "すず@@": 12665, "内野": 12666, "ちく": 12667, "アワード": 12668, "パラダイス": 12669, "キューバ": 12670, "ステン@@": 12671, "幻想": 12672, "シード": 12673, "アルバイト": 12674, "友好": 12675, "筒@@": 12676, "ハリウッド": 12677, "ブリュ@@": 12678, "泳@@": 12679, "大変": 12680, "甚@@": 12681, "1000@@": 12682, "踏み@@": 12683, "Port@@": 12684, "North": 12685, "dett@@": 12686, "MOVI@@": 12687, "単発": 12688, "tis": 12689, "バイオ": 12690, "運河": 12691, "りょう": 12692, "魔法@@": 12693, "暇": 12694, "めき": 12695, "ids": 12696, "GAM@@": 12697, "大原": 12698, "Lab@@": 12699, "ロング@@": 12700, "ヴァン": 12701, "稔": 12702, "虎@@": 12703, "date": 12704, "ミックス": 12705, "暗黒": 12706, "ense": 12707, "ホン": 12708, "20200@@": 12709, "祝日": 12710, "kei": 12711, "アンド": 12712, "テキスト": 12713, "でしょ": 12714, "媒@@": 12715, "８": 12716, "果て": 12717, "吹奏楽": 12718, "尋@@": 12719, "Encyclopedia": 12720, "ドラゴンズ": 12721, "。@@": 12722, "楽譜": 12723, "貢": 12724, "ida": 12725, "AE": 12726, "リーフ": 12727, "択": 12728, "uri@@": 12729, "レイン@@": 12730, "1885": 12731, "Great": 12732, "FOR@@": 12733, "畜": 12734, "itch@@": 12735, "℃": 12736, "Smith": 12737, "pm": 12738, "萩": 12739, "朝倉": 12740, "小笠原": 12741, "寛政": 12742, "How": 12743, "中佐": 12744, "飾っ": 12745, "อ@@": 12746, "自由民主党": 12747, "みや": 12748, "uki": 12749, "Mot@@": 12750, "妄@@": 12751, "徹底": 12752, "典型": 12753, "メチ@@": 12754, "奈子": 12755, "mi": 12756, "JP": 12757, "警官": 12758, "小・中学校": 12759, "行使": 12760, "旅館": 12761, "くら@@": 12762, "status": 12763, "災": 12764, "ゾ": 12765, "tten": 12766, "に従って": 12767, "パーティ": 12768, "主人": 12769, "評さ": 12770, "イエス": 12771, "大石": 12772, "礁": 12773, "挙行": 12774, "story": 12775, "ボラン@@": 12776, "後年": 12777, "NDLJP": 12778, "DG@@": 12779, "伴@@": 12780, "ニュース@@": 12781, "とこ": 12782, "廊": 12783, "改組": 12784, "平方@@": 12785, "Dr@@": 12786, "バスターミナル": 12787, "ニコラ@@": 12788, "んと": 12789, "担う": 12790, "懇@@": 12791, "壊": 12792, "彰@@": 12793, "コンテナ": 12794, "遷@@": 12795, "В@@": 12796, "蒙": 12797, "冨@@": 12798, "疾@@": 12799, "これ@@": 12800, "鴨@@": 12801, "玩@@": 12802, "９": 12803, "ぱ": 12804, "搬@@": 12805, "札@@": 12806, "デッ@@": 12807, "淀@@": 12808, "เ@@": 12809, "丁@@": 12810, "痴@@": 12811, "FF@@": 12812, "薩": 12813, "灘": 12814, "疑": 12815, "ドラゴ@@": 12816, "荻@@": 12817, "：@@": 12818, "是@@": 12819, "徐": 12820, "杏": 12821, "責": 12822, "停": 12823, "yle": 12824, "轄": 12825, "テッド": 12826, "クリス@@": 12827, "賞@@": 12828, "珍": 12829, "后": 12830, "属@@": 12831, "曾@@": 12832, "綱@@": 12833, "Jan@@": 12834, "瓦": 12835, "缶": 12836, "閉": 12837, "にわ@@": 12838, "臼@@": 12839, "凶@@": 12840, "爵@@": 12841, "ソナ@@": 12842, "廠": 12843, "墳": 12844, "淫@@": 12845, "鋭": 12846, "粉@@": 12847, "ツイ@@": 12848, "据@@": 12849, "Pla@@": 12850, "鎧": 12851, "eric@@": 12852, "かれ": 12853, "胴@@": 12854, "瞬": 12855, "オープ@@": 12856, "苗@@": 12857, "脂": 12858, "ography": 12859, "勾@@": 12860, "恒": 12861, "センス": 12862, "哨@@": 12863, "股": 12864, "琴@@": 12865, "扇@@": 12866, "姦": 12867, "とん@@": 12868, "郎@@": 12869, "朽": 12870, "national": 12871, "鄭": 12872, "胡": 12873, "楠": 12874, "威@@": 12875, "騎@@": 12876, "詰": 12877, "Pet@@": 12878, "髪@@": 12879, "·": 12880, "齢": 12881, "募": 12882, "働@@": 12883, "宴": 12884, "趣@@": 12885, "ションズ": 12886, "sh": 12887, "レコー@@": 12888, "磨@@": 12889, "句@@": 12890, "誉": 12891, "毎@@": 12892, "篤@@": 12893, "«": 12894, "乾@@": 12895, "臣@@": 12896, "クソン": 12897, "符@@": 12898, "Vol@@": 12899, "稲": 12900, "椿": 12901, "і@@": 12902, "パート@@": 12903, "SN": 12904, "潤@@": 12905, "穏@@": 12906, "盆@@": 12907, "鷲": 12908, "oci@@": 12909, "ングス": 12910, "迷": 12911, "鯨": 12912, "狩": 12913, "san@@": 12914, "遥": 12915, "袖": 12916, "仰@@": 12917, "暖@@": 12918, "顎": 12919, "鋭@@": 12920, "呈": 12921, "戒@@": 12922, "Mich@@": 12923, "民党": 12924, "及": 12925, "克": 12926, "枝@@": 12927, "窓@@": 12928, "[@@": 12929, "π": 12930, "乾": 12931, "FL": 12932, "坊@@": 12933, "叶@@": 12934, "掘": 12935, "ith": 12936, "マンス": 12937, "爾": 12938, "的@@": 12939, "豚": 12940, "霞": 12941, "酔": 12942, "捨@@": 12943, "eball": 12944, "瘍": 12945, "覇@@": 12946, "UR": 12947, "いに": 12948, "惨@@": 12949, "辻@@": 12950, "培@@": 12951, "麺": 12952, "罠": 12953, "附@@": 12954, "勅@@": 12955, "♪": 12956, "叙": 12957, "ディズ@@": 12958, "ul": 12959, "敢@@": 12960, "遮@@": 12961, "募@@": 12962, "吊@@": 12963, "溜@@": 12964, "奏@@": 12965, "シック": 12966, "ulation": 12967, "晩": 12968, "共和@@": 12969, "楓": 12970, "ミステ@@": 12971, "萬": 12972, "樺@@": 12973, "ั@@": 12974, "猿@@": 12975, "窪": 12976, "鎌@@": 12977, "征@@": 12978, "舟@@": 12979, "磁": 12980, "荘@@": 12981, "ヅ@@": 12982, "囚@@": 12983, "”@@": 12984, "黙": 12985, "♪@@": 12986, "エスト": 12987, "オリジ@@": 12988, "ダブル@@": 12989, "拘@@": 12990, "荒": 12991, "遣": 12992, "に従@@": 12993, "擢": 12994, "抄": 12995, "キネ@@": 12996, "壁@@": 12997, "ぃ@@": 12998, "終": 12999, "酔@@": 13000, "ainment": 13001, "ドキュ@@": 13002, "透@@": 13003, "悠@@": 13004, "脚@@": 13005, "尋": 13006, "虫@@": 13007, "怪": 13008, "チャンピ@@": 13009, "把@@": 13010, "日本旅客鉄道": 13011, "ume": 13012, "請": 13013, "聴": 13014, "契@@": 13015, "祀": 13016, "廣@@": 13017, "巴": 13018, "丞": 13019, "ht": 13020, "幹線": 13021, "掴@@": 13022, "邪": 13023, "コロン@@": 13024, "禅@@": 13025, "О@@": 13026, "踊": 13027, "罰@@": 13028, "殆@@": 13029, "欺": 13030, "恥@@": 13031, "訴@@": 13032, "棚": 13033, "祝": 13034, "eo": 13035, "ぷ": 13036, "函@@": 13037, "料@@": 13038, "ก@@": 13039, "臨": 13040, "ども": 13041, "潜": 13042, "映": 13043, "奉": 13044, "胤": 13045, "戚": 13046, "･@@": 13047, "狗": 13048, "溝@@": 13049, "迅@@": 13050, "†": 13051, "釜": 13052, "枯@@": 13053, "彗@@": 13054, "マニア": 13055, "▲": 13056, "是": 13057, "朋@@": 13058, "圓": 13059, "я@@": 13060, "ベース@@": 13061, "腫@@": 13062, "崖": 13063, "就": 13064, "肺@@": 13065, "存@@": 13066, "塊": 13067, "翻@@": 13068, "侍@@": 13069, "誤": 13070, "拠@@": 13071, "ソード": 13072, "琉@@": 13073, "砕@@": 13074, "泥": 13075, "努@@": 13076, "キロ@@": 13077, "鼻@@": 13078, "曳@@": 13079, "Н@@": 13080, "鉛": 13081, "宰@@": 13082, "詠@@": 13083, "Dec@@": 13084, "魅@@": 13085, "т": 13086, "エピ@@": 13087, "巧": 13088, "験@@": 13089, "やす@@": 13090, "どり": 13091, "薔@@": 13092, "胆": 13093, "oot@@": 13094, "Spec@@": 13095, "É@@": 13096, "鞭": 13097, "オリン@@": 13098, "択@@": 13099, "更": 13100, "アーカイ@@": 13101, "牌": 13102, "綿": 13103, "塁@@": 13104, "デザ@@": 13105, "薇": 13106, "影@@": 13107, "桑": 13108, "榎@@": 13109, "索@@": 13110, "瀧": 13111, "н": 13112, "ο@@": 13113, "＠": 13114, "喋@@": 13115, "枢@@": 13116, "季@@": 13117, "Hig@@": 13118, "鋳@@": 13119, "柿@@": 13120, "乗る": 13121, "飢@@": 13122, "過ご@@": 13123, "any": 13124, "紡@@": 13125, "遥@@": 13126, "宙": 13127, "ビュー": 13128, "谷川": 13129, "纏@@": 13130, "縛": 13131, "Univers@@": 13132, "鶏": 13133, "凝@@": 13134, "貰@@": 13135, "ストラ": 13136, "腺": 13137, "杖": 13138, "郁": 13139, "й@@": 13140, "穴@@": 13141, "衛隊": 13142, "骸": 13143, "ouse": 13144, "潟@@": 13145, "撰": 13146, "朋": 13147, "謀@@": 13148, "肩@@": 13149, "障": 13150, "いく@@": 13151, "耶": 13152, "懐": 13153, "麦@@": 13154, "凱@@": 13155, "洛": 13156, "﨑@@": 13157, "垣@@": 13158, "ference": 13159, "槽": 13160, "填": 13161, "婆": 13162, "玲": 13163, "レッジ": 13164, "惚@@": 13165, "賜": 13166, "茨@@": 13167, "ヵ@@": 13168, "なら@@": 13169, "セス": 13170, "まつ@@": 13171, "ロイヤ@@": 13172, "尼": 13173, "刷@@": 13174, "霧@@": 13175, "矛@@": 13176, "惜@@": 13177, "LD": 13178, "亭@@": 13179, "暴": 13180, "濃": 13181, "忘@@": 13182, "彫@@": 13183, "かか@@": 13184, "慣": 13185, "椎": 13186, "俵": 13187, "憂@@": 13188, "困": 13189, "ject": 13190, "裁判@@": 13191, "ジェーム@@": 13192, "日本経済@@": 13193, "隼": 13194, "隙": 13195, "『@@": 13196, "族@@": 13197, "Jul@@": 13198, "恭": 13199, "PG": 13200, "京都@@": 13201, "楠@@": 13202, "浅": 13203, "肥": 13204, "墨": 13205, "ñ@@": 13206, "幌@@": 13207, "斎@@": 13208, "販@@": 13209, "苫@@": 13210, "茉@@": 13211, "back": 13212, "スタッ@@": 13213, "Ass@@": 13214, "稽@@": 13215, "茜": 13216, "看@@": 13217, "展@@": 13218, "試": 13219, "＊": 13220, "震災": 13221, "供": 13222, "ゆみ": 13223, "ウト": 13224, "釣@@": 13225, "葛": 13226, "峯": 13227, "ヘ": 13228, "凄@@": 13229, "ポケ@@": 13230, "粒": 13231, "鷲@@": 13232, "墨@@": 13233, "訪": 13234, "合衆国": 13235, "潟": 13236, "Syst@@": 13237, "輌": 13238, "脊@@": 13239, "微": 13240, "掃": 13241, "箕@@": 13242, "午": 13243, "癒@@": 13244, "の子": 13245, "傘": 13246, "狐": 13247, "柴@@": 13248, "坪@@": 13249, "避": 13250, "vie": 13251, "┃": 13252, "駄@@": 13253, "隷@@": 13254, "OW": 13255, "ball": 13256, "WS": 13257, "IST@@": 13258, "萌@@": 13259, "ords": 13260, "舗": 13261, "扇": 13262, "バラエ@@": 13263, "∂": 13264, "衝@@": 13265, "ちな@@": 13266, "悦@@": 13267, "尻@@": 13268, "И@@": 13269, "嫌": 13270, "ギリ@@": 13271, "洪": 13272, "妻@@": 13273, "隼@@": 13274, "裔": 13275, "粋": 13276, "込@@": 13277, "ドナ@@": 13278, "生ま@@": 13279, "蘭@@": 13280, "披@@": 13281, "stat@@": 13282, "討": 13283, "ディレ@@": 13284, "濱@@": 13285, "濱": 13286, "و@@": 13287, "手が@@": 13288, "堕@@": 13289, "】@@": 13290, "聯@@": 13291, "Station": 13292, "遽": 13293, "暖": 13294, "けれ": 13295, "ダニ@@": 13296, "置き@@": 13297, "アニメー@@": 13298, "須賀": 13299, "okyo": 13300, "委": 13301, "ourn@@": 13302, "フト@@": 13303, "逐@@": 13304, "斬": 13305, "腔": 13306, "忌": 13307, "錯@@": 13308, "ง@@": 13309, "踪": 13310, "侶": 13311, "頓@@": 13312, "晃@@": 13313, "質@@": 13314, "銭@@": 13315, "舘": 13316, "遡@@": 13317, "胞@@": 13318, "ж@@": 13319, "乏@@": 13320, "もの@@": 13321, "NH@@": 13322, "′": 13323, "かつ@@": 13324, "formation": 13325, "Boo@@": 13326, "惹@@": 13327, "箱@@": 13328, "いず@@": 13329, "聡@@": 13330, "綬@@": 13331, "遺": 13332, "Ret@@": 13333, "逝@@": 13334, "いで": 13335, "削@@": 13336, "Т@@": 13337, "嘆@@": 13338, "陀@@": 13339, "齋@@": 13340, "紛@@": 13341, "於": 13342, "站@@": 13343, "祇@@": 13344, "添": 13345, "胎@@": 13346, "搬": 13347, "タリー": 13348, "睦": 13349, "肺": 13350, "腐": 13351, "傑": 13352, "Willi@@": 13353, "妥@@": 13354, "校生": 13355, "軌": 13356, "COR@@": 13357, "이@@": 13358, "م@@": 13359, "邑@@": 13360, "捜": 13361, "呉@@": 13362, "なわ": 13363, "辛": 13364, "輸@@": 13365, "跨@@": 13366, "KY@@": 13367, "鳩@@": 13368, "UE@@": 13369, "皿": 13370, "舎@@": 13371, "恨@@": 13372, "剖": 13373, "莉": 13374, "菓": 13375, "ь": 13376, "翁": 13377, "汗": 13378, "糖@@": 13379, "曜日": 13380, "嗣@@": 13381, "陶": 13382, "泊@@": 13383, "卑@@": 13384, "って@@": 13385, "即": 13386, "餌": 13387, "淡": 13388, "藻": 13389, "碧": 13390, "Б@@": 13391, "叉": 13392, "錠": 13393, "戴@@": 13394, "azine": 13395, "Mic@@": 13396, "偏": 13397, "廻@@": 13398, "傭@@": 13399, "醍@@": 13400, "//": 13401, "Eu@@": 13402, "果た@@": 13403, "窒@@": 13404, "ダウン@@": 13405, "屈": 13406, "担": 13407, "蒼@@": 13408, "滋": 13409, "α@@": 13410, "厩@@": 13411, "レント": 13412, "腫": 13413, "Tim@@": 13414, "hist@@": 13415, "諦@@": 13416, "虚": 13417, "ς": 13418, "尖@@": 13419, "Nov@@": 13420, "哺@@": 13421, "遂": 13422, "俗@@": 13423, "騙@@": 13424, "綻": 13425, "ر@@": 13426, "暮": 13427, "コマ@@": 13428, "眞@@": 13429, "署@@": 13430, "プト": 13431, "鏡@@": 13432, "ヘリ@@": 13433, "イント": 13434, "錬": 13435, "凛": 13436, "楚": 13437, "翠": 13438, "侯@@": 13439, "幌": 13440, "則@@": 13441, "偶@@": 13442, "也@@": 13443, "幹@@": 13444, "呈@@": 13445, "督@@": 13446, "輩@@": 13447, "儒@@": 13448, "濡@@": 13449, "郁@@": 13450, "僕@@": 13451, "晶@@": 13452, "pd@@": 13453, "ジオ": 13454, "貸": 13455, "漬@@": 13456, "堆@@": 13457, "傍": 13458, "殉@@": 13459, "汰": 13460, "洗": 13461, "飽@@": 13462, "巫@@": 13463, "ม@@": 13464, "溺@@": 13465, "燃": 13466, "腰@@": 13467, "渚": 13468, "床@@": 13469, "粗@@": 13470, "文化@@": 13471, "災@@": 13472, "∈": 13473, "杵": 13474, "陳@@": 13475, "奮": 13476, "ork": 13477, "ˈ": 13478, "φ": 13479, "挺": 13480, "障@@": 13481, "録@@": 13482, "辿@@": 13483, "患@@": 13484, "噛@@": 13485, "ema": 13486, "硬": 13487, "串@@": 13488, "餅": 13489, "ล@@": 13490, "ぃ": 13491, "謝@@": 13492, "ジェクト": 13493, "穫": 13494, "亨": 13495, "嫁@@": 13496, "まん@@": 13497, "宜@@": 13498, "℃@@": 13499, "宇": 13500, "offic@@": 13501, "奔@@": 13502, "ague": 13503, "プリ": 13504, "ิ@@": 13505, "違": 13506, "Joh@@": 13507, "コラボ@@": 13508, "凌@@": 13509, "フランシ@@": 13510, "訊@@": 13511, "梓": 13512, "λ": 13513, "駄": 13514, "粛": 13515, "錬@@": 13516, "逸": 13517, "旺@@": 13518, "ぇ": 13519, "董": 13520, "アカデ@@": 13521, "研究@@": 13522, "囚": 13523, "鴨": 13524, "ridge": 13525, "峡": 13526, "暗": 13527, "スタジ@@": 13528, "届": 13529, "Ｎ@@": 13530, "かけ@@": 13531, "愚@@": 13532, "慧": 13533, "枢": 13534, "慢@@": 13535, "璧": 13536, "rist@@": 13537, "烏": 13538, "ユニバー@@": 13539, "汲@@": 13540, "楕@@": 13541, "儀@@": 13542, "chn@@": 13543, "縄": 13544, "□@@": 13545, "薬品": 13546, "詣": 13547, "璃": 13548, "粟@@": 13549, "了@@": 13550, "會@@": 13551, "謙": 13552, "和歌@@": 13553, "θ": 13554, "悔@@": 13555, "泳": 13556, "労働@@": 13557, "施": 13558, "琵@@": 13559, "カテゴ@@": 13560, "泡": 13561, "聘": 13562, "壮": 13563, "ш@@": 13564, "盲@@": 13565, "ゆる": 13566, "Archiv@@": 13567, "巌": 13568, "窮@@": 13569, "凍": 13570, "臭": 13571, "停車@@": 13572, "ว@@": 13573, "畠@@": 13574, "兎": 13575, "蜜": 13576, "峙": 13577, "ield": 13578, "Bib@@": 13579, "畔": 13580, "躍@@": 13581, "叱@@": 13582, "鳩": 13583, "嶽": 13584, "睡@@": 13585, "又@@": 13586, "紺@@": 13587, "fra@@": 13588, "到": 13589, "ω": 13590, "函": 13591, "廟": 13592, "＃": 13593, "キャプ@@": 13594, "ワイ": 13595, "針@@": 13596, "σ": 13597, "雌": 13598, "姻": 13599, "普": 13600, "警察@@": 13601, "ゴール@@": 13602, "Publ@@": 13603, "掌@@": 13604, "甘": 13605, "่@@": 13606, "瓦@@": 13607, "MUS@@": 13608, "審@@": 13609, "隔": 13610, "に際@@": 13611, "漁": 13612, "塵": 13613, "コラ@@": 13614, "騰": 13615, "溢@@": 13616, "訃@@": 13617, "購@@": 13618, "プレミ@@": 13619, "畑@@": 13620, "婿": 13621, "チア": 13622, "赦": 13623, "»": 13624, "カテ@@": 13625, "憩": 13626, "♥": 13627, "歪@@": 13628, "ρ@@": 13629, "鵬": 13630, "舷": 13631, "勘": 13632, "畠": 13633, "к": 13634, "この@@": 13635, "摘@@": 13636, "儲@@": 13637, "ootball": 13638, "捷": 13639, "抜": 13640, "トイ@@": 13641, "Д@@": 13642, "堤@@": 13643, "宛@@": 13644, "晩@@": 13645, "悦": 13646, "壺": 13647, "庇@@": 13648, "ヲ@@": 13649, "畳": 13650, "邊": 13651, "鞍@@": 13652, "畜@@": 13653, "トラー": 13654, "棺": 13655, "芥@@": 13656, "榴@@": 13657, "読売@@": 13658, "奄@@": 13659, "DL@@": 13660, "エクス@@": 13661, "邸@@": 13662, "穀@@": 13663, "責@@": 13664, "ジラ": 13665, "マネー@@": 13666, "描@@": 13667, "洲@@": 13668, "γ": 13669, "NT@@": 13670, "慮": 13671, "芙@@": 13672, "耶@@": 13673, "ι@@": 13674, "ジル": 13675, "叔@@": 13676, "◎": 13677, "唇": 13678, "案@@": 13679, "綿@@": 13680, "Ａ": 13681, "眺@@": 13682, "庫@@": 13683, "髭": 13684, "鵜@@": 13685, "Г@@": 13686, "粛@@": 13687, "朝日@@": 13688, "パレ@@": 13689, "泌": 13690, "莫@@": 13691, "芽@@": 13692, "漫": 13693, "汎@@": 13694, "棚@@": 13695, "薩@@": 13696, "美術@@": 13697, "漆@@": 13698, "パーソナ@@": 13699, "肯@@": 13700, "かの": 13701, "騨": 13702, "到@@": 13703, "麿": 13704, "х@@": 13705, "193@@": 13706, "嬉@@": 13707, "寅@@": 13708, "ú@@": 13709, "罪@@": 13710, "ν": 13711, "輸": 13712, "耳@@": 13713, "棲@@": 13714, "乙@@": 13715, "ぎる": 13716, "禍": 13717, "なが@@": 13718, "梱": 13719, "嫉@@": 13720, "韻": 13721, "揖@@": 13722, "ml": 13723, "峰@@": 13724, "肪": 13725, "巧@@": 13726, "邑": 13727, "状@@": 13728, "墳@@": 13729, "♡": 13730, "凡@@": 13731, "gle": 13732, "逓@@": 13733, "ي@@": 13734, "グリー@@": 13735, "絹@@": 13736, "呼": 13737, "プロダ@@": 13738, "ember": 13739, "諭@@": 13740, "妬": 13741, "耗": 13742, "宛": 13743, "AWA": 13744, "帽": 13745, "時に": 13746, "焉": 13747, "Associ@@": 13748, "肇": 13749, "胡@@": 13750, "弦楽": 13751, "鞍": 13752, "均": 13753, "ต@@": 13754, "輯": 13755, "倭": 13756, "究": 13757, "民主@@": 13758, "會": 13759, "踏": 13760, "澄@@": 13761, "遍": 13762, "湧@@": 13763, "コンピ@@": 13764, "衝": 13765, "lob@@": 13766, "膳": 13767, "シカ@@": 13768, "lar": 13769, "憑@@": 13770, "忌@@": 13771, "ย@@": 13772, "ERO": 13773, "娯@@": 13774, "覆": 13775, "締": 13776, "匿@@": 13777, "ational": 13778, "ニッポン@@": 13779, "互": 13780, "仇": 13781, "揆": 13782, "鰭": 13783, "拷@@": 13784, "nc@@": 13785, "窯": 13786, "壱": 13787, "ヨーク": 13788, "卵@@": 13789, "ビエ@@": 13790, "たと@@": 13791, "くは": 13792, "寅": 13793, "寸": 13794, "冊@@": 13795, "此@@": 13796, "借": 13797, "紘": 13798, "崔": 13799, "裳": 13800, "触": 13801, "整": 13802, "∑": 13803, "プター": 13804, "繰@@": 13805, "項@@": 13806, "胴": 13807, "伎@@": 13808, "號": 13809, "閃@@": 13810, "ส@@": 13811, "ミュージ@@": 13812, "スポー@@": 13813, "窪@@": 13814, "佛": 13815, "稚@@": 13816, "嶋@@": 13817, "藍@@": 13818, "レンジ": 13819, "シネ@@": 13820, "賜@@": 13821, "奨@@": 13822, "š@@": 13823, "券@@": 13824, "胞": 13825, "蹟": 13826, "冥@@": 13827, "煮@@": 13828, "net@@": 13829, "Geor@@": 13830, "而@@": 13831, "却@@": 13832, "砕": 13833, "幽": 13834, "顧": 13835, "Publish@@": 13836, "否@@": 13837, "á": 13838, "臭@@": 13839, "τ@@": 13840, "ライブラ@@": 13841, "軟": 13842, "199@@": 13843, "虐": 13844, "宍@@": 13845, "ã@@": 13846, "廉": 13847, "ウェー": 13848, "ournal": 13849, "向か@@": 13850, "やく": 13851, "ころ@@": 13852, "鱗": 13853, "早稲@@": 13854, "傳": 13855, "ホール@@": 13856, "醤@@": 13857, "不動@@": 13858, "宰": 13859, "凪": 13860, "board": 13861, "의": 13862, "縛@@": 13863, "ヴィル@@": 13864, "้@@": 13865, "ML@@": 13866, "梁@@": 13867, "吏": 13868, "慈": 13869, "aily": 13870, "捕": 13871, "卸@@": 13872, "บ@@": 13873, "干": 13874, "隠": 13875, "榊@@": 13876, "硝@@": 13877, "界@@": 13878, "材@@": 13879, "р": 13880, "ี@@": 13881, "蒲": 13882, "ы": 13883, "蝦@@": 13884, "匹@@": 13885, "淑@@": 13886, "袁@@": 13887, "悩": 13888, "圖@@": 13889, "魁": 13890, "孔@@": 13891, "飼": 13892, "鍋@@": 13893, "樫": 13894, "艶": 13895, "垂": 13896, "圏@@": 13897, "複": 13898, "č@@": 13899, "Encyclop@@": 13900, "旅客@@": 13901, "碑@@": 13902, "ぇ@@": 13903, "舵": 13904, "桓@@": 13905, "諜@@": 13906, "枕": 13907, "束@@": 13908, "â@@": 13909, "ログ": 13910, "黎@@": 13911, "廻": 13912, "stit@@": 13913, "ب@@": 13914, "獣@@": 13915, "チュア": 13916, "テキ@@": 13917, "鹿児@@": 13918, "霞@@": 13919, "曇": 13920, "しま@@": 13921, "凡": 13922, "ū@@": 13923, "悔": 13924, "尹": 13925, "才@@": 13926, "胃@@": 13927, "魯@@": 13928, "æ@@": 13929, "埼@@": 13930, "叢": 13931, "驅@@": 13932, "頸@@": 13933, "鮮": 13934, "ф@@": 13935, "庭@@": 13936, "験": 13937, "避@@": 13938, "麟": 13939, "需": 13940, "Ａ@@": 13941, "邉": 13942, "輿": 13943, "鉢": 13944, "肝": 13945, "執": 13946, "陀": 13947, "⋅": 13948, "惟@@": 13949, "團": 13950, "但@@": 13951, "神奈@@": 13952, "乏": 13953, "ß@@": 13954, "俸": 13955, "嬢@@": 13956, "檀": 13957, "銚@@": 13958, "棲": 13959, "鎌": 13960, "閑@@": 13961, "198@@": 13962, "扮": 13963, "大き@@": 13964, "紐": 13965, "Δ": 13966, "ν@@": 13967, "揺": 13968, "肘": 13969, "脆@@": 13970, "トロール": 13971, "ardi@@": 13972, "採": 13973, "隋": 13974, "ビジュ@@": 13975, "岳@@": 13976, "蛍@@": 13977, "獄@@": 13978, "坐@@": 13979, "實": 13980, "沸@@": 13981, "嵯@@": 13982, "訂@@": 13983, "Л@@": 13984, "獲@@": 13985, "斯@@": 13986, "芹@@": 13987, "千代@@": 13988, "蔽": 13989, "舗@@": 13990, "寂@@": 13991, "□": 13992, "蜂": 13993, "斑@@": 13994, "斉@@": 13995, "亘@@": 13996, "Ｓ": 13997, "ท@@": 13998, "オプ@@": 13999, "１@@": 14000, "維@@": 14001, "呂@@": 14002, "怨@@": 14003, "くだ@@": 14004, "У@@": 14005, "惧": 14006, "埴@@": 14007, "м": 14008, "払": 14009, "｣@@": 14010, "盟@@": 14011, "酵": 14012, "蛇@@": 14013, "腎": 14014, "lop@@": 14015, "蕭@@": 14016, "謳@@": 14017, "Ｔ@@": 14018, "人民共和国": 14019, "巣@@": 14020, "幾": 14021, "喬": 14022, "猟@@": 14023, "約@@": 14024, "様@@": 14025, "只@@": 14026, "額@@": 14027, "欽@@": 14028, "學@@": 14029, "坑": 14030, "Ζ": 14031, "rele@@": 14032, "刈": 14033, "斧": 14034, "誌@@": 14035, "蔣@@": 14036, "猶@@": 14037, "乞@@": 14038, "ebook": 14039, "痕": 14040, "紗@@": 14041, "笠原": 14042, "匂@@": 14043, "ケーション": 14044, "じて": 14045, "鴻@@": 14046, "ジメント": 14047, "Ｓ@@": 14048, "web@@": 14049, "冗@@": 14050, "謹@@": 14051, "冶": 14052, "偶": 14053, "憤@@": 14054, "訓@@": 14055, "妨@@": 14056, "蓉": 14057, "づ": 14058, "站": 14059, "諱": 14060, "歌舞@@": 14061, "柵": 14062, "ムニ@@": 14063, "鳳@@": 14064, "惣": 14065, "牡@@": 14066, "捻@@": 14067, "ensus": 14068, "款": 14069, "廉@@": 14070, "»@@": 14071, "盆": 14072, "勃@@": 14073, "租@@": 14074, "猪": 14075, "Ｃ@@": 14076, "阜@@": 14077, "襄": 14078, "Ｖ": 14079, "衰": 14080, "惑@@": 14081, "棘": 14082, "撫@@": 14083, "瞬@@": 14084, "ī@@": 14085, "斑": 14086, "ふる@@": 14087, "陥": 14088, "｜@@": 14089, "丙": 14090, "錐": 14091, "琶@@": 14092, "匡": 14093, "대@@": 14094, "ｍ": 14095, "件@@": 14096, "ч": 14097, "堰": 14098, "スコット@@": 14099, "Ⅰ": 14100, "満た@@": 14101, "きっ@@": 14102, "占": 14103, "諫@@": 14104, "々木": 14105, "苦": 14106, "陛@@": 14107, "≪": 14108, "DV@@": 14109, "屯@@": 14110, "鼓@@": 14111, "ゞ": 14112, "勲@@": 14113, "丼": 14114, "桟@@": 14115, "睦@@": 14116, "痕@@": 14117, "YouT@@": 14118, "プログラ@@": 14119, "跡@@": 14120, "坦": 14121, "費@@": 14122, "庸": 14123, "アソ@@": 14124, "誘": 14125, "縫@@": 14126, "壱@@": 14127, "ن@@": 14128, "ə": 14129, "昂": 14130, "蓄": 14131, "碧@@": 14132, "戰@@": 14133, "裸@@": 14134, "絹": 14135, "<@@": 14136, "Ｃ": 14137, "195@@": 14138, "息@@": 14139, "ivers@@": 14140, "綺@@": 14141, "boo@@": 14142, "恥": 14143, "呑@@": 14144, "コンテン@@": 14145, "塞@@": 14146, "汐": 14147, "伽@@": 14148, "Soci@@": 14149, "ぁ@@": 14150, "ぴ": 14151, "咸@@": 14152, "璃@@": 14153, "臓@@": 14154, "にく@@": 14155, "授": 14156, "ニコ": 14157, "幼": 14158, "捜@@": 14159, "х": 14160, "共和国": 14161, "櫻": 14162, "擦": 14163, "atis@@": 14164, "コミュニ@@": 14165, "賑@@": 14166, "株@@": 14167, "ズン": 14168, "出来@@": 14169, "사@@": 14170, "柿": 14171, "灌@@": 14172, "批@@": 14173, "ด@@": 14174, "疫@@": 14175, "燈@@": 14176, "諮@@": 14177, "鮎@@": 14178, "祷": 14179, "陵@@": 14180, "λ@@": 14181, "Ｉ@@": 14182, "罵@@": 14183, "姓@@": 14184, "欣@@": 14185, "朔": 14186, "嗜@@": 14187, "ε@@": 14188, "菱@@": 14189, "専": 14190, "允": 14191, "у": 14192, "artic@@": 14193, "帆@@": 14194, "敢": 14195, "ห@@": 14196, "隅@@": 14197, "害@@": 14198, "倣": 14199, "閲": 14200, "柔": 14201, "甫": 14202, "惣@@": 14203, "筐": 14204, "彌": 14205, "殖@@": 14206, "コメ@@": 14207, "叡@@": 14208, "ymp@@": 14209, "癒": 14210, "정@@": 14211, "²@@": 14212, "NAS@@": 14213, "侮@@": 14214, "怠@@": 14215, "姪": 14216, "餓@@": 14217, "畳@@": 14218, "週@@": 14219, "埠@@": 14220, "瑛": 14221, "クレジ@@": 14222, "煮": 14223, "範@@": 14224, "ento": 14225, "府県": 14226, "洛@@": 14227, "融": 14228, "Instit@@": 14229, "偉": 14230, "机": 14231, "緯": 14232, "蔭": 14233, "知らせ": 14234, "アーティ@@": 14235, "來": 14236, "凶": 14237, "汐@@": 14238, "蜘@@": 14239, "賄@@": 14240, "td": 14241, "л": 14242, "code": 14243, "兜": 14244, "吟@@": 14245, "柊": 14246, "漫@@": 14247, "rest@@": 14248, "迂@@": 14249, "枠@@": 14250, "昔@@": 14251, "ε": 14252, "｡": 14253, "́": 14254, "晒@@": 14255, "域@@": 14256, "PM@@": 14257, "珂": 14258, "冴@@": 14259, "鈍@@": 14260, "滴": 14261, "痺": 14262, "#@@": 14263, "コーポ@@": 14264, "蛛": 14265, "雌@@": 14266, "摂": 14267, "ê@@": 14268, "τ": 14269, "Ｏ@@": 14270, "孟": 14271, "紋@@": 14272, "体育@@": 14273, "與": 14274, "易@@": 14275, "毘@@": 14276, "軒@@": 14277, "梗@@": 14278, "濯": 14279, "苛@@": 14280, "輔@@": 14281, "塔@@": 14282, "Rich@@": 14283, "檜@@": 14284, "徒@@": 14285, "盧": 14286, "価@@": 14287, "雛": 14288, "もっ@@": 14289, "篠": 14290, "惨": 14291, "Ｊ@@": 14292, "リゾ@@": 14293, "梶": 14294, "伺@@": 14295, "盤@@": 14296, "~@@": 14297, "Е@@": 14298, "既": 14299, "彷@@": 14300, "ベンチャー": 14301, "ن": 14302, "隕@@": 14303, "わせ": 14304, "彬": 14305, "彙": 14306, "噌": 14307, "誓": 14308, "∫": 14309, "譜@@": 14310, "屯": 14311, "霜": 14312, "胆@@": 14313, "桶": 14314, "Sco@@": 14315, "塁打": 14316, "鍾@@": 14317, "ć": 14318, "書館": 14319, "侠": 14320, "◆": 14321, "挫": 14322, "慌": 14323, "憑": 14324, "禎": 14325, "覗@@": 14326, "旦": 14327, "ː": 14328, "榛@@": 14329, "勁@@": 14330, "像@@": 14331, "玖@@": 14332, "Thom@@": 14333, "鴻": 14334, "俣@@": 14335, "覇": 14336, "レスト@@": 14337, "姜": 14338, "嚢": 14339, "宕": 14340, "堪@@": 14341, "瓜": 14342, "伍": 14343, "ぢ": 14344, "한@@": 14345, "抵@@": 14346, "モンゴ@@": 14347, "厩": 14348, "稚": 14349, "δ": 14350, "稜": 14351, "遷": 14352, "煉@@": 14353, "anese": 14354, "這@@": 14355, "馳@@": 14356, "爬@@": 14357, "ahoo": 14358, "蔡@@": 14359, "◇": 14360, "鍵@@": 14361, "壽": 14362, "穏": 14363, "逝": 14364, "弄": 14365, "峻": 14366, "í": 14367, "瞭": 14368, "嘱": 14369, "ค@@": 14370, "喉": 14371, "拳@@": 14372, "с": 14373, "菌@@": 14374, "蹴": 14375, "鯉": 14376, "櫓": 14377, "黎": 14378, "態@@": 14379, "臼": 14380, "尽": 14381, "淀": 14382, "暑": 14383, "掟": 14384, "189@@": 14385, "ザベ@@": 14386, "繕": 14387, "槌": 14388, "挫@@": 14389, "某": 14390, "升": 14391, "bi": 14392, "س@@": 14393, "弟@@": 14394, "轟": 14395, "凌": 14396, "呪": 14397, "พ@@": 14398, "巾": 14399, "詫@@": 14400, "滞@@": 14401, "アプリ@@": 14402, "セカ@@": 14403, "云@@": 14404, "漆": 14405, "罹@@": 14406, "掲": 14407, "旦@@": 14408, "矯@@": 14409, "د@@": 14410, "螺@@": 14411, "ゝ": 14412, "σ@@": 14413, "ô@@": 14414, "侑@@": 14415, "拾": 14416, "迦@@": 14417, "醐@@": 14418, "迦": 14419, "≫": 14420, "溪@@": 14421, "アレク@@": 14422, "員@@": 14423, "窮": 14424, "鶏@@": 14425, "ุ@@": 14426, "囃@@": 14427, "ちら": 14428, "ffic@@": 14429, "讃": 14430, "欅": 14431, "僚@@": 14432, "曼@@": 14433, "渠": 14434, "琢@@": 14435, "考え@@": 14436, "した@@": 14437, "亘": 14438, "萬@@": 14439, "Ｂ": 14440, "柚@@": 14441, "秒@@": 14442, "伽": 14443, "尺@@": 14444, "扱@@": 14445, "笹": 14446, "于@@": 14447, "抵": 14448, "怜": 14449, "Ω": 14450, "蛮": 14451, "榊": 14452, "皐@@": 14453, "鞘": 14454, "際@@": 14455, "挽@@": 14456, "κ@@": 14457, "胃": 14458, "およ@@": 14459, "陪@@": 14460, "昏": 14461, "偕@@": 14462, "縫": 14463, "ρ": 14464, "197@@": 14465, "194@@": 14466, "薙": 14467, "墟": 14468, "≤": 14469, "ワシン@@": 14470, "炊@@": 14471, "ł@@": 14472, "ネシア": 14473, "Ｅ@@": 14474, "爺": 14475, "adem@@": 14476, "ショッ@@": 14477, "국@@": 14478, "晋@@": 14479, "冥": 14480, "牢": 14481, "湿": 14482, "196@@": 14483, "輛": 14484, "曜@@": 14485, "麒@@": 14486, "芯": 14487, "撮": 14488, "暢": 14489, "汝": 14490, "塗": 14491, "ა@@": 14492, "栓": 14493, "矩": 14494, "栖@@": 14495, "Ｂ@@": 14496, "ø@@": 14497, "駕": 14498, "殊@@": 14499, "袋@@": 14500, "‎@@": 14501, "喝": 14502, "錫": 14503, "壕": 14504, "ナリスト": 14505, "刃@@": 14506, "址": 14507, "盃": 14508, "播": 14509, "パフォー@@": 14510, "撒@@": 14511, "礫": 14512, "柄@@": 14513, "且@@": 14514, "学院@@": 14515, "スポン@@": 14516, "柚": 14517, "菱": 14518, "倣@@": 14519, "カンパ@@": 14520, "渥@@": 14521, "eum": 14522, "Ｍ": 14523, "⋯": 14524, "遼@@": 14525, "盟": 14526, "搾@@": 14527, "Ｐ@@": 14528, "紹@@": 14529, "概": 14530, "窃@@": 14531, "宴@@": 14532, "渦@@": 14533, "険@@": 14534, "김@@": 14535, "弔@@": 14536, "爽@@": 14537, "佑@@": 14538, "壬@@": 14539, "閏": 14540, "️": 14541, "®": 14542, "渤@@": 14543, "地下@@": 14544, "渦": 14545, "•": 14546, "襟": 14547, "ロンド@@": 14548, "尿@@": 14549, "湧": 14550, "煽@@": 14551, "dex": 14552, "浙@@": 14553, "愉@@": 14554, "股@@": 14555, "Ｍ@@": 14556, "穀": 14557, "窺@@": 14558, "痴": 14559, "藏": 14560, "忙": 14561, "緋": 14562, "鬱": 14563, "腸@@": 14564, "秦@@": 14565, "揉@@": 14566, "д": 14567, "エネル@@": 14568, "ت@@": 14569, "愁": 14570, "祠": 14571, "芋": 14572, "寡@@": 14573, "§": 14574, "縞": 14575, "ó": 14576, "剤@@": 14577, "峯@@": 14578, "串": 14579, "メキシ@@": 14580, "ā": 14581, "人民@@": 14582, "汎": 14583, "嵐@@": 14584, "者@@": 14585, "枕@@": 14586, "隙@@": 14587, "ำ@@": 14588, "ラテン@@": 14589, "濁@@": 14590, "⇔": 14591, "提": 14592, "レギュ@@": 14593, "探": 14594, "Radi@@": 14595, "遍@@": 14596, "席@@": 14597, "Ｋ": 14598, "呆@@": 14599, "ジェント": 14600, "晦@@": 14601, "oft": 14602, "KIN@@": 14603, "娼@@": 14604, "緯@@": 14605, "償@@": 14606, "—@@": 14607, "梵@@": 14608, "に関@@": 14609, "ランダ": 14610, "或@@": 14611, "Mach@@": 14612, "伐@@": 14613, "妓": 14614, "逗@@": 14615, "漱@@": 14616, "楯": 14617, "狸": 14618, "ept@@": 14619, "遙": 14620, "殲@@": 14621, "脩": 14622, "暁@@": 14623, "サウンド@@": 14624, "峡@@": 14625, "塾@@": 14626, "嘱@@": 14627, "廊@@": 14628, "湘@@": 14629, "蝶@@": 14630, "扁@@": 14631, "箇@@": 14632, "幡@@": 14633, "憶": 14634, "蛍": 14635, "羊@@": 14636, "雁": 14637, "径@@": 14638, "トヨ@@": 14639, "斐": 14640, "淑": 14641, "檎": 14642, "霜@@": 14643, "贄": 14644, "Ｐ": 14645, "卯@@": 14646, "μ@@": 14647, "烈@@": 14648, "Dat@@": 14649, "ю@@": 14650, "暉": 14651, "確": 14652, "いった": 14653, "ป@@": 14654, "いは": 14655, "揶@@": 14656, "Ｈ@@": 14657, "糾@@": 14658, "喚@@": 14659, "忙@@": 14660, "จ@@": 14661, "揄": 14662, "А": 14663, "杭": 14664, "云": 14665, "瀕@@": 14666, "JB@@": 14667, "Ｄ": 14668, "ヴァイオリ@@": 14669, "PER": 14670, "猫@@": 14671, "揮@@": 14672, "ะ@@": 14673, "鷺": 14674, "餐": 14675, "鋒": 14676, ";@@": 14677, "榮": 14678, "∗": 14679, "ψ": 14680, "鬱@@": 14681, "冑": 14682, "醐": 14683, "貧": 14684, "諏@@": 14685, "プラット@@": 14686, "倭@@": 14687, "梢": 14688, "Offic@@": 14689, "イギ@@": 14690, "崩": 14691, "麹": 14692, "働": 14693, "Ｄ@@": 14694, "ช@@": 14695, "饉": 14696, "鉛@@": 14697, "斗@@": 14698, "±": 14699, "絡": 14700, "叡": 14701, "Aug@@": 14702, "│": 14703, "徴": 14704, "З@@": 14705, "⟩": 14706, "인@@": 14707, "按@@": 14708, "冨": 14709, "fe": 14710, "眉": 14711, "凸": 14712, "Ｇ@@": 14713, "苔": 14714, "橿@@": 14715, "鐘@@": 14716, "宵": 14717, "일@@": 14718, "鼠": 14719, "拍": 14720, "酢@@": 14721, "━@@": 14722, "à@@": 14723, "痩@@": 14724, "แ@@": 14725, "楢@@": 14726, "牝": 14727, "嶼": 14728, "滋@@": 14729, "モーション": 14730, "芭@@": 14731, "綜@@": 14732, "醜@@": 14733, "飛行@@": 14734, "叶": 14735, "夷@@": 14736, "誰@@": 14737, "諒": 14738, "侠@@": 14739, "エリザベ@@": 14740, "ı@@": 14741, "○@@": 14742, "鷺@@": 14743, "ī": 14744, "跳": 14745, "閃": 14746, "覧@@": 14747, "腿": 14748, "劣": 14749, "遵@@": 14750, "埼": 14751, "詠": 14752, "すべ@@": 14753, "仔@@": 14754, "診@@": 14755, "詔": 14756, "Ｗ@@": 14757, "憂": 14758, "本当@@": 14759, "濠": 14760, "暦@@": 14761, "Ｒ": 14762, "翅": 14763, "腎@@": 14764, "蟹@@": 14765, "Ф@@": 14766, "屍": 14767, "iba": 14768, "或": 14769, "ゐ": 14770, "dition": 14771, "妊": 14772, "塀": 14773, "ō@@": 14774, "コンサ@@": 14775, "牽@@": 14776, "아@@": 14777, "濫": 14778, "絢@@": 14779, "厨@@": 14780, "穣": 14781, "狛@@": 14782, "隊@@": 14783, "ife": 14784, "蒔@@": 14785, "罷@@": 14786, "戎": 14787, "擬": 14788, "弐@@": 14789, "エジ@@": 14790, "氾@@": 14791, "ա@@": 14792, "荼@@": 14793, "ة": 14794, "馨": 14795, "其": 14796, "棒@@": 14797, "葺@@": 14798, "↑": 14799, "糞": 14800, "堵": 14801, "タンパ@@": 14802, "粟": 14803, "壬": 14804, "薫@@": 14805, "ί@@": 14806, "⇒@@": 14807, "吻": 14808, "迄": 14809, "酪@@": 14810, "荻": 14811, "兆@@": 14812, "努": 14813, "殷": 14814, "顧@@": 14815, "蕎@@": 14816, "昴": 14817, "弐": 14818, "瀧@@": 14819, "２@@": 14820, "☆@@": 14821, "Ⅲ": 14822, "狼@@": 14823, "ϕ": 14824, "熙": 14825, "叛@@": 14826, "擦@@": 14827, "凹@@": 14828, "시@@": 14829, "栞": 14830, "糧": 14831, "頬": 14832, "樽@@": 14833, "鄧@@": 14834, "咽@@": 14835, "寵@@": 14836, "酎": 14837, "ი@@": 14838, "矮@@": 14839, "²": 14840, "籠@@": 14841, "弦@@": 14842, "坑@@": 14843, "Ｆ@@": 14844, "唄@@": 14845, "励": 14846, "ael": 14847, "催": 14848, "峨": 14849, "屏@@": 14850, "다": 14851, "Ö@@": 14852, "釘": 14853, "縣": 14854, "縣@@": 14855, "賃": 14856, "ても": 14857, "級@@": 14858, "漣": 14859, "Bill@@": 14860, "モバイ@@": 14861, "荊@@": 14862, "３@@": 14863, "卑": 14864, "嗅@@": 14865, "愚": 14866, "淵@@": 14867, "η": 14868, "蛭@@": 14869, "VP": 14870, "ع@@": 14871, "蹄": 14872, "祇": 14873, "怯@@": 14874, "毀@@": 14875, "Davi@@": 14876, "卸": 14877, "ی@@": 14878, "噺": 14879, "曙": 14880, "惠": 14881, "厄@@": 14882, "號@@": 14883, "渾@@": 14884, "Ｒ@@": 14885, "崗@@": 14886, "Jap@@": 14887, "躯": 14888, "飴": 14889, "懸": 14890, "勿@@": 14891, "藻@@": 14892, "亥": 14893, "熙@@": 14894, "–@@": 14895, "藪": 14896, "蚕": 14897, "狀@@": 14898, "喰": 14899, "酢": 14900, "煩@@": 14901, "患": 14902, "さま@@": 14903, "虜": 14904, "傲@@": 14905, "自治@@": 14906, "uary": 14907, "醒@@": 14908, "В": 14909, "雫": 14910, "倫@@": 14911, "撲@@": 14912, "荏@@": 14913, "妾": 14914, "暑@@": 14915, "峨@@": 14916, "ぺ": 14917, "倶@@": 14918, "原子@@": 14919, "ubli@@": 14920, "翼@@": 14921, "しば": 14922, "程@@": 14923, "舐@@": 14924, "穿@@": 14925, "지@@": 14926, "讀@@": 14927, "孵@@": 14928, "紺": 14929, "麟@@": 14930, "卯": 14931, "斡@@": 14932, "巽": 14933, "轟@@": 14934, "耀@@": 14935, "燈": 14936, "鉾": 14937, "コンセ@@": 14938, "冶@@": 14939, "叫": 14940, "偲@@": 14941, "汪": 14942, "唯@@": 14943, "躊@@": 14944, "朽@@": 14945, "傀@@": 14946, "icon": 14947, "睡": 14948, "笛@@": 14949, "４@@": 14950, "瞑@@": 14951, "拗": 14952, "嵩": 14953, "排": 14954, "昆": 14955, "詳": 14956, "塙": 14957, "胎": 14958, "怖": 14959, "÷": 14960, "炸@@": 14961, "葦": 14962, "凰": 14963, "灼@@": 14964, "焚@@": 14965, "♂": 14966, "箸": 14967, "憐": 14968, "斯": 14969, "稜@@": 14970, "М": 14971, "蕉": 14972, "捉": 14973, "捏@@": 14974, "寧@@": 14975, "cyc@@": 14976, "遅": 14977, "민@@": 14978, "剃@@": 14979, "Ｏ": 14980, "妹@@": 14981, "牢@@": 14982, "‖": 14983, "嘗@@": 14984, "仰": 14985, "→@@": 14986, "應@@": 14987, "韮@@": 14988, "礎": 14989, "樋": 14990, "喪": 14991, "珂@@": 14992, "橘@@": 14993, "欧@@": 14994, "舘@@": 14995, "蕃": 14996, "高等@@": 14997, "綺": 14998, "„": 14999, "э@@": 15000, "閻@@": 15001, "鮎": 15002, "儡": 15003, "스@@": 15004, "臆@@": 15005, "檜": 15006, "煕": 15007, "閤": 15008, "菖@@": 15009, "曰": 15010, "慌@@": 15011, "豹": 15012, "寮@@": 15013, "鸞": 15014, "隈@@": 15015, "祓@@": 15016, "Vid@@": 15017, "蔑@@": 15018, "抄@@": 15019, "疹": 15020, "∞@@": 15021, "戊@@": 15022, "パラダイ@@": 15023, "鎖@@": 15024, "淮@@": 15025, "기@@": 15026, "澪": 15027, "夭@@": 15028, "薨@@": 15029, "π@@": 15030, "ストリア": 15031, "裾": 15032, "喩": 15033, "謂": 15034, "膏": 15035, "蛙": 15036, "徽@@": 15037, "蓋@@": 15038, "舌@@": 15039, "杜@@": 15040, "杵@@": 15041, "涌@@": 15042, "昆@@": 15043, "η@@": 15044, "渋": 15045, "櫛": 15046, "姑": 15047, "邱": 15048, "å@@": 15049, "バレー@@": 15050, "滸@@": 15051, "栃": 15052, "梯": 15053, "漕@@": 15054, "帳@@": 15055, "享@@": 15056, "茅": 15057, "匿": 15058, "蟹": 15059, "Ｔ": 15060, "蔓@@": 15061, "含": 15062, "鍼@@": 15063, "沌": 15064, "리@@": 15065, "葺": 15066, "筑": 15067, "น": 15068, "厨": 15069, "wards": 15070, "賦": 15071, "畿": 15072, "悼@@": 15073, "Way@@": 15074, "欽": 15075, "惧@@": 15076, "當@@": 15077, "Ox@@": 15078, "蛋@@": 15079, "疎": 15080, "綬": 15081, "濁": 15082, "紳": 15083, "鉢@@": 15084, "蔑": 15085, "冒@@": 15086, "はる@@": 15087, "冤@@": 15088, "椋": 15089, "悲": 15090, "馮@@": 15091, "がっ@@": 15092, "袖@@": 15093, "ž@@": 15094, "賓": 15095, "孤": 15096, "喉@@": 15097, "廿@@": 15098, "漸@@": 15099, "嘆": 15100, "ë@@": 15101, "禰": 15102, "垢": 15103, "妊@@": 15104, "翻": 15105, "鼎": 15106, "仔": 15107, "婁": 15108, "ق@@": 15109, "議院": 15110, "﨑": 15111, "哈@@": 15112, "采": 15113, "焔": 15114, "戮": 15115, "發@@": 15116, "肪@@": 15117, "眉@@": 15118, "彫": 15119, "弊": 15120, "芦": 15121, "♡@@": 15122, "湊@@": 15123, "擲@@": 15124, "昏@@": 15125, "י@@": 15126, "畝": 15127, "杭@@": 15128, "珊@@": 15129, "榜": 15130, "OFF@@": 15131, "返": 15132, "喪@@": 15133, "하@@": 15134, "Ч@@": 15135, "錯": 15136, "劾": 15137, "獨@@": 15138, "總": 15139, "①": 15140, "粕@@": 15141, "寂": 15142, "曜": 15143, "頒@@": 15144, "櫛@@": 15145, "⁄": 15146, "はり": 15147, "傅": 15148, "Ｋ@@": 15149, "喘@@": 15150, "痢": 15151, "愕": 15152, "潘": 15153, "暫@@": 15154, "薗": 15155, "渇@@": 15156, "ş@@": 15157, "蛮@@": 15158, "栽": 15159, "趣": 15160, "竿": 15161, "痙@@": 15162, "吏@@": 15163, "공@@": 15164, "陝@@": 15165, "网": 15166, "②": 15167, "誉@@": 15168, "秤": 15169, "ر": 15170, "苅@@": 15171, "悶@@": 15172, "洸": 15173, "洩": 15174, "輌@@": 15175, "昧": 15176, "鮫@@": 15177, "殊": 15178, "潔@@": 15179, "선@@": 15180, "Ｅ": 15181, "ح@@": 15182, "砺@@": 15183, "鹵@@": 15184, "穆": 15185, "щ@@": 15186, "氣@@": 15187, "廷@@": 15188, "跋": 15189, "哨": 15190, "輩": 15191, "慨": 15192, "Hist@@": 15193, "赦@@": 15194, "栃@@": 15195, "酵@@": 15196, "桶@@": 15197, "ヂ": 15198, "豫@@": 15199, "テイン@@": 15200, "契": 15201, "墾": 15202, "牡": 15203, "조@@": 15204, "緋@@": 15205, "促": 15206, "チス": 15207, "掻@@": 15208, "佃": 15209, "는": 15210, "坐": 15211, "奴@@": 15212, "シンガ@@": 15213, "閑": 15214, "累": 15215, "Ｆ": 15216, "ე@@": 15217, "オーストラ@@": 15218, "なた": 15219, "颯@@": 15220, "撫": 15221, "芹": 15222, "惇": 15223, "Americ@@": 15224, "嚢@@": 15225, "贅@@": 15226, "瀋@@": 15227, "ไ@@": 15228, "欺@@": 15229, "ό@@": 15230, "卍": 15231, "賓@@": 15232, "煎@@": 15233, "虔": 15234, "幣@@": 15235, "吐": 15236, "伍@@": 15237, "餃@@": 15238, "자@@": 15239, "薦@@": 15240, "甦@@": 15241, "簿@@": 15242, "Ｊ": 15243, "碓@@": 15244, "夫@@": 15245, "詮": 15246, "釘@@": 15247, "전@@": 15248, "주@@": 15249, "紘@@": 15250, "⟨": 15251, "━": 15252, "飲": 15253, "妖": 15254, "攣": 15255, "率@@": 15256, "さい@@": 15257, "舜": 15258, "ά@@": 15259, "賄": 15260, "泡@@": 15261, "С": 15262, "檻": 15263, "屑": 15264, "泣": 15265, "ו@@": 15266, "tish": 15267, "葡@@": 15268, "Ü@@": 15269, "游": 15270, "メンタリー": 15271, "⟶": 15272, "聚@@": 15273, "樺": 15274, "桔@@": 15275, "肛@@": 15276, "媚@@": 15277, "通信@@": 15278, "デイリー@@": 15279, "雍@@": 15280, "鮫": 15281, "マレー@@": 15282, "弊@@": 15283, "そこ@@": 15284, "俯@@": 15285, "祉@@": 15286, "―@@": 15287, "ざま": 15288, "只": 15289, "恨": 15290, "이": 15291, "勒": 15292, "№": 15293, "曇@@": 15294, "嘴": 15295, "盲": 15296, "ج@@": 15297, "繭": 15298, "聰": 15299, "ง": 15300, "瑠": 15301, "樫@@": 15302, "控": 15303, "Č@@": 15304, "蘆": 15305, "靭": 15306, "신@@": 15307, "航空@@": 15308, "騒": 15309, "ف@@": 15310, "瓜@@": 15311, "弼": 15312, "絢": 15313, "Ｌ@@": 15314, "厄": 15315, "珈@@": 15316, "膵@@": 15317, "齊@@": 15318, "彭@@": 15319, "吠@@": 15320, "洒@@": 15321, "范@@": 15322, "د": 15323, "聯": 15324, "і": 15325, "捗": 15326, "緩": 15327, "ヱ@@": 15328, "亦": 15329, "ぉ": 15330, "ă@@": 15331, "拠地": 15332, "동@@": 15333, "鴉": 15334, "萼": 15335, "粘": 15336, "慄": 15337, "Σ": 15338, "柱@@": 15339, "甑": 15340, "榎": 15341, "ي": 15342, "思": 15343, "艤@@": 15344, "濤": 15345, "媛": 15346, "υ@@": 15347, "釣": 15348, "企": 15349, "ē@@": 15350, "缶@@": 15351, "ずか": 15352, "婿@@": 15353, "≠": 15354, "Á@@": 15355, "稀@@": 15356, "î@@": 15357, "JAP@@": 15358, "豚@@": 15359, "紛": 15360, "繋": 15361, "泄": 15362, "琲": 15363, "煌@@": 15364, "蜀@@": 15365, "itter": 15366, "魅": 15367, "疆@@": 15368, "스": 15369, "고@@": 15370, "囁@@": 15371, "班@@": 15372, "劉@@": 15373, "ユナイ@@": 15374, "吟": 15375, "崑": 15376, "酉": 15377, "︎": 15378, "ぅ": 15379, "俵@@": 15380, "庸@@": 15381, "炒@@": 15382, "魯": 15383, "蕨": 15384, "爺@@": 15385, "隧@@": 15386, "涙@@": 15387, "箕": 15388, "攘@@": 15389,
[...]
